unsigned char model_eye_model_tflite[] = {
  0x20, 0x00, 0x00, 0x00, 0x54, 0x46, 0x4c, 0x33, 0x00, 0x00, 0x00, 0x00,
  0x14, 0x00, 0x20, 0x00, 0x1c, 0x00, 0x18, 0x00, 0x14, 0x00, 0x10, 0x00,
  0x0c, 0x00, 0x00, 0x00, 0x08, 0x00, 0x04, 0x00, 0x14, 0x00, 0x00, 0x00,
  0x1c, 0x00, 0x00, 0x00, 0x88, 0x00, 0x00, 0x00, 0xe0, 0x00, 0x00, 0x00,
  0x18, 0x19, 0x00, 0x00, 0x28, 0x19, 0x00, 0x00, 0xec, 0x26, 0x00, 0x00,
  0x03, 0x00, 0x00, 0x00, 0x01, 0x00, 0x00, 0x00, 0x04, 0x00, 0x00, 0x00,
  0xe6, 0xe5, 0xff, 0xff, 0x0c, 0x00, 0x00, 0x00, 0x1c, 0x00, 0x00, 0x00,
  0x3c, 0x00, 0x00, 0x00, 0x0f, 0x00, 0x00, 0x00, 0x73, 0x65, 0x72, 0x76,
  0x69, 0x6e, 0x67, 0x5f, 0x64, 0x65, 0x66, 0x61, 0x75, 0x6c, 0x74, 0x00,
  0x01, 0x00, 0x00, 0x00, 0x04, 0x00, 0x00, 0x00, 0x94, 0xff, 0xff, 0xff,
  0x16, 0x00, 0x00, 0x00, 0x04, 0x00, 0x00, 0x00, 0x08, 0x00, 0x00, 0x00,
  0x6f, 0x75, 0x74, 0x70, 0x75, 0x74, 0x5f, 0x30, 0x00, 0x00, 0x00, 0x00,
  0x01, 0x00, 0x00, 0x00, 0x04, 0x00, 0x00, 0x00, 0xee, 0xe5, 0xff, 0xff,
  0x04, 0x00, 0x00, 0x00, 0x0b, 0x00, 0x00, 0x00, 0x69, 0x6e, 0x70, 0x75,
  0x74, 0x5f, 0x6c, 0x61, 0x79, 0x65, 0x72, 0x00, 0x02, 0x00, 0x00, 0x00,
  0x34, 0x00, 0x00, 0x00, 0x04, 0x00, 0x00, 0x00, 0xdc, 0xff, 0xff, 0xff,
  0x19, 0x00, 0x00, 0x00, 0x04, 0x00, 0x00, 0x00, 0x13, 0x00, 0x00, 0x00,
  0x43, 0x4f, 0x4e, 0x56, 0x45, 0x52, 0x53, 0x49, 0x4f, 0x4e, 0x5f, 0x4d,
  0x45, 0x54, 0x41, 0x44, 0x41, 0x54, 0x41, 0x00, 0x08, 0x00, 0x0c, 0x00,
  0x08, 0x00, 0x04, 0x00, 0x08, 0x00, 0x00, 0x00, 0x18, 0x00, 0x00, 0x00,
  0x04, 0x00, 0x00, 0x00, 0x13, 0x00, 0x00, 0x00, 0x6d, 0x69, 0x6e, 0x5f,
  0x72, 0x75, 0x6e, 0x74, 0x69, 0x6d, 0x65, 0x5f, 0x76, 0x65, 0x72, 0x73,
  0x69, 0x6f, 0x6e, 0x00, 0x1a, 0x00, 0x00, 0x00, 0x34, 0x18, 0x00, 0x00,
  0x2c, 0x18, 0x00, 0x00, 0xfc, 0x17, 0x00, 0x00, 0xcc, 0x16, 0x00, 0x00,
  0xb8, 0x16, 0x00, 0x00, 0xa4, 0x16, 0x00, 0x00, 0x90, 0x16, 0x00, 0x00,
  0x40, 0x16, 0x00, 0x00, 0xf0, 0x15, 0x00, 0x00, 0xa0, 0x15, 0x00, 0x00,
  0x8c, 0x15, 0x00, 0x00, 0xfc, 0x10, 0x00, 0x00, 0xec, 0x00, 0x00, 0x00,
  0xe4, 0x00, 0x00, 0x00, 0xdc, 0x00, 0x00, 0x00, 0xd4, 0x00, 0x00, 0x00,
  0xcc, 0x00, 0x00, 0x00, 0xc4, 0x00, 0x00, 0x00, 0xbc, 0x00, 0x00, 0x00,
  0xb4, 0x00, 0x00, 0x00, 0xac, 0x00, 0x00, 0x00, 0xa4, 0x00, 0x00, 0x00,
  0x9c, 0x00, 0x00, 0x00, 0x94, 0x00, 0x00, 0x00, 0x74, 0x00, 0x00, 0x00,
  0x04, 0x00, 0x00, 0x00, 0xce, 0xe6, 0xff, 0xff, 0x04, 0x00, 0x00, 0x00,
  0x60, 0x00, 0x00, 0x00, 0x0c, 0x00, 0x00, 0x00, 0x08, 0x00, 0x0e, 0x00,
  0x08, 0x00, 0x04, 0x00, 0x08, 0x00, 0x00, 0x00, 0x10, 0x00, 0x00, 0x00,
  0x28, 0x00, 0x00, 0x00, 0x00, 0x00, 0x06, 0x00, 0x08, 0x00, 0x04, 0x00,
  0x06, 0x00, 0x00, 0x00, 0x04, 0x00, 0x00, 0x00, 0x01, 0x00, 0x00, 0x00,
  0xea, 0x03, 0x00, 0x00, 0x0c, 0x00, 0x18, 0x00, 0x14, 0x00, 0x10, 0x00,
  0x0c, 0x00, 0x04, 0x00, 0x0c, 0x00, 0x00, 0x00, 0x5d, 0x0a, 0x5a, 0x89,
  0x22, 0x2a, 0xeb, 0x98, 0x02, 0x00, 0x00, 0x00, 0x02, 0x00, 0x00, 0x00,
  0x04, 0x00, 0x00, 0x00, 0x06, 0x00, 0x00, 0x00, 0x32, 0x2e, 0x32, 0x30,
  0x2e, 0x30, 0x00, 0x00, 0x3a, 0xe7, 0xff, 0xff, 0x04, 0x00, 0x00, 0x00,
  0x10, 0x00, 0x00, 0x00, 0x32, 0x2e, 0x31, 0x37, 0x2e, 0x30, 0x00, 0x00,
  0x00, 0x00, 0x00, 0x00, 0x00, 0x00, 0x00, 0x00, 0x1c, 0xdb, 0xff, 0xff,
  0x20, 0xdb, 0xff, 0xff, 0x24, 0xdb, 0xff, 0xff, 0x28, 0xdb, 0xff, 0xff,
  0x2c, 0xdb, 0xff, 0xff, 0x30, 0xdb, 0xff, 0xff, 0x34, 0xdb, 0xff, 0xff,
  0x38, 0xdb, 0xff, 0xff, 0x3c, 0xdb, 0xff, 0xff, 0x40, 0xdb, 0xff, 0xff,
  0x44, 0xdb, 0xff, 0xff, 0x82, 0xe7, 0xff, 0xff, 0x04, 0x00, 0x00, 0x00,
  0x00, 0x10, 0x00, 0x00, 0x34, 0x0b, 0xe8, 0xf3, 0x07, 0x10, 0x20, 0xd9,
  0xe9, 0xfb, 0x19, 0x31, 0x0a, 0xc0, 0x29, 0xf9, 0xf2, 0x0e, 0x06, 0xfc,
  0xfa, 0xf4, 0x00, 0xf2, 0xdf, 0x17, 0x06, 0x0e, 0xf5, 0x10, 0x44, 0x1a,
  0xf5, 0xf9, 0xfe, 0xe7, 0x23, 0xea, 0xfc, 0xec, 0xfe, 0xd8, 0xfa, 0xea,
  0xf4, 0xfa, 0x0d, 0x18, 0x10, 0xe3, 0xdd, 0xe5, 0x15, 0x16, 0x1d, 0x08,
  0x18, 0xf3, 0xe7, 0x0b, 0x56, 0xe4, 0x01, 0x0f, 0x07, 0x26, 0x17, 0x09,
  0x05, 0xed, 0x07, 0xd6, 0xe5, 0xb9, 0x07, 0xe9, 0x0f, 0xe3, 0xf9, 0xd7,
  0xf1, 0x23, 0xd5, 0xf0, 0xcd, 0xf4, 0x10, 0xe6, 0x04, 0xf8, 0x1c, 0x36,
  0xc8, 0x0f, 0x1a, 0x35, 0xea, 0xce, 0x0e, 0xe3, 0x0f, 0x07, 0xdd, 0x16,
  0x2c, 0xe5, 0x35, 0x3e, 0xfb, 0x00, 0x36, 0x0c, 0x02, 0xec, 0xb5, 0x02,
  0x35, 0x06, 0x1d, 0x0f, 0x34, 0xdb, 0xf3, 0x34, 0x19, 0xfc, 0xe1, 0xee,
  0x00, 0x25, 0x11, 0xfb, 0xdb, 0x02, 0x18, 0x09, 0xcd, 0xda, 0xe1, 0xed,
  0x24, 0xcf, 0xf3, 0x05, 0xec, 0x34, 0x4b, 0x20, 0x81, 0x04, 0xf9, 0xee,
  0xed, 0xfb, 0x2c, 0xfb, 0x07, 0xf7, 0x1d, 0x22, 0xed, 0xb3, 0x26, 0x47,
  0xd6, 0xf1, 0xcc, 0x23, 0x24, 0x1d, 0x59, 0x09, 0x0c, 0x0a, 0x07, 0x2c,
  0x0b, 0xc3, 0x37, 0x1e, 0x24, 0xea, 0xec, 0x43, 0x14, 0xed, 0x08, 0xff,
  0xe5, 0x03, 0xca, 0xf9, 0xfe, 0x2a, 0x2b, 0x10, 0x2b, 0xfb, 0x00, 0xf7,
  0x27, 0x1e, 0xf1, 0xd4, 0x0a, 0x1e, 0x24, 0x22, 0x00, 0x0b, 0x19, 0x03,
  0x0b, 0x0a, 0x0b, 0x15, 0xd2, 0x1f, 0x0f, 0xec, 0xf5, 0x20, 0xe3, 0xe6,
  0xed, 0xf0, 0x36, 0x3a, 0xe6, 0x03, 0xfd, 0x39, 0xc5, 0x44, 0x47, 0xf1,
  0x03, 0x10, 0xb4, 0xea, 0x0d, 0x31, 0x18, 0x00, 0x0c, 0x0f, 0x1f, 0x16,
  0x00, 0x02, 0x0c, 0x2e, 0xf2, 0xec, 0xf3, 0xb7, 0xd8, 0x1f, 0x05, 0xf5,
  0xbb, 0x19, 0x12, 0x33, 0x05, 0x41, 0x0d, 0xc4, 0xaa, 0xda, 0x53, 0xee,
  0x4a, 0x07, 0xde, 0xb6, 0x8f, 0xa8, 0x1a, 0x04, 0xf7, 0xea, 0xc1, 0x36,
  0x0b, 0xb0, 0x52, 0xc9, 0xc2, 0x2a, 0x36, 0xfd, 0xa1, 0xa8, 0xd6, 0xbf,
  0x5f, 0xf1, 0xb9, 0xaa, 0x89, 0x21, 0xb2, 0x95, 0x3a, 0x2a, 0xfb, 0xa4,
  0xfd, 0xec, 0xbf, 0x9f, 0x29, 0x38, 0xb2, 0xdc, 0xa5, 0x17, 0xab, 0x1d,
  0x25, 0xd4, 0x4f, 0x02, 0x59, 0x60, 0x27, 0xdf, 0xce, 0xc4, 0xd6, 0x3e,
  0xbd, 0xc5, 0x4d, 0xf0, 0x4b, 0x15, 0x23, 0xff, 0xaa, 0x63, 0x00, 0xa4,
  0xd0, 0x45, 0x2e, 0x1f, 0x30, 0xfa, 0x0f, 0xcd, 0x06, 0xf7, 0x1f, 0x26,
  0x9e, 0xac, 0xef, 0xc0, 0xee, 0xf6, 0x4b, 0x48, 0x53, 0xd0, 0x29, 0xb7,
  0xf3, 0xf3, 0xb5, 0x10, 0x14, 0xef, 0x32, 0x09, 0xcc, 0xc3, 0xda, 0x55,
  0x0a, 0xb9, 0x17, 0x3d, 0x27, 0xf8, 0x3d, 0x4c, 0xf2, 0x19, 0xf3, 0x9c,
  0x02, 0x9e, 0xc8, 0xce, 0xdb, 0x2d, 0xd5, 0xf8, 0xa5, 0xe3, 0x98, 0x27,
  0xb1, 0xb3, 0xe8, 0x45, 0xdb, 0xf8, 0x5e, 0xae, 0x81, 0xcc, 0x4f, 0x16,
  0x20, 0xbd, 0xea, 0x45, 0x1a, 0xd2, 0x16, 0x25, 0x22, 0xc0, 0x5f, 0x05,
  0x02, 0xbc, 0xf5, 0x5d, 0x86, 0xa8, 0x27, 0x3b, 0x86, 0x48, 0x55, 0xfb,
  0xf4, 0xf4, 0xa2, 0xf2, 0x0f, 0xb7, 0x10, 0x98, 0xda, 0xe7, 0xac, 0xcc,
  0x06, 0x3b, 0x54, 0x9b, 0xf1, 0x59, 0xf7, 0x9f, 0x0d, 0xae, 0xa8, 0x47,
  0x9a, 0xe6, 0xbb, 0x54, 0x07, 0xf2, 0x06, 0xcf, 0x97, 0x0d, 0x41, 0x4d,
  0xb4, 0x8b, 0x1a, 0xe4, 0x41, 0x57, 0x1c, 0x3a, 0x1f, 0x23, 0xac, 0xef,
  0x16, 0x27, 0x20, 0x16, 0xa1, 0x97, 0xcc, 0xb3, 0x1d, 0xd4, 0xb2, 0x02,
  0xf0, 0x02, 0x03, 0xa8, 0xc3, 0xaf, 0x0a, 0xe5, 0x06, 0xf0, 0x27, 0x0e,
  0x15, 0x19, 0x00, 0xea, 0x2a, 0x0a, 0x2a, 0xe7, 0xe9, 0x04, 0xfb, 0x3b,
  0x00, 0xcb, 0x2f, 0xd0, 0x10, 0x2b, 0xf1, 0xe9, 0x0a, 0xec, 0x15, 0xf6,
  0xe5, 0x1a, 0x0d, 0x01, 0xcb, 0xf1, 0x50, 0x15, 0xef, 0xe5, 0xee, 0xe8,
  0x1b, 0xf7, 0x0d, 0xfb, 0x22, 0xe3, 0x19, 0xf7, 0x12, 0xfa, 0x25, 0x2d,
  0x26, 0xeb, 0xac, 0xf5, 0x1a, 0x0d, 0x26, 0x0c, 0xeb, 0xcc, 0xc4, 0x04,
  0x7f, 0xde, 0xf9, 0x2b, 0xf4, 0x19, 0x29, 0xfa, 0xde, 0xff, 0x26, 0xd8,
  0xc1, 0xcd, 0x16, 0xe8, 0x27, 0xc3, 0x08, 0xdf, 0x15, 0x41, 0xc8, 0xca,
  0xc2, 0xef, 0x03, 0xf2, 0xde, 0xe4, 0x2c, 0x32, 0xc3, 0x0a, 0x24, 0x47,
  0xd4, 0xe5, 0x0e, 0x09, 0xf6, 0x0e, 0xdb, 0xfb, 0x28, 0xfb, 0x1e, 0x3b,
  0x10, 0x0c, 0x1a, 0x0b, 0x1c, 0xca, 0xcd, 0x03, 0x45, 0x04, 0x20, 0xf7,
  0x20, 0xbd, 0x07, 0x44, 0x18, 0x04, 0xcf, 0x02, 0xf4, 0x37, 0x25, 0xf0,
  0xf0, 0xeb, 0x1f, 0xea, 0xdd, 0xf4, 0xd0, 0xe8, 0x13, 0xdb, 0x19, 0xf8,
  0xea, 0x51, 0x4a, 0x1b, 0x8d, 0x0f, 0x0c, 0xee, 0xed, 0xff, 0x25, 0xe6,
  0x36, 0xe7, 0x0f, 0x1f, 0xee, 0xbb, 0x3f, 0x4e, 0xdc, 0xee, 0xdc, 0x26,
  0x27, 0x37, 0x79, 0xf5, 0xf3, 0x3c, 0xfd, 0x12, 0x0f, 0xb7, 0x1b, 0x20,
  0x06, 0xf3, 0xe1, 0x51, 0x2d, 0xd5, 0x33, 0x05, 0xe1, 0x0d, 0xc6, 0x0f,
  0xf9, 0x2f, 0x52, 0x19, 0x17, 0x12, 0xf7, 0x14, 0x52, 0x19, 0xdb, 0xd7,
  0xf5, 0x0e, 0x27, 0x0e, 0xfe, 0xdb, 0xfa, 0x13, 0x0b, 0xf7, 0x00, 0x10,
  0xfb, 0x2e, 0x0a, 0x09, 0xf7, 0x16, 0xe7, 0xd9, 0xd6, 0xd3, 0x47, 0x35,
  0xc7, 0x04, 0x13, 0x3e, 0xc9, 0x2d, 0x45, 0x07, 0x04, 0xfa, 0xb3, 0xc6,
  0x0b, 0x2f, 0xf3, 0x12, 0x15, 0xf8, 0xfb, 0x06, 0x01, 0xe9, 0xf4, 0x38,
  0xf4, 0xef, 0x09, 0xc6, 0x15, 0x0c, 0x21, 0x12, 0xf3, 0x0b, 0x06, 0x22,
  0x03, 0x2a, 0x49, 0xfe, 0x0d, 0xfe, 0x56, 0xf3, 0xf5, 0x06, 0x09, 0x16,
  0xfa, 0x05, 0x07, 0x26, 0xf7, 0x21, 0xfc, 0x01, 0xe5, 0x0f, 0xf2, 0xe2,
  0xdc, 0x0b, 0x14, 0x11, 0xf1, 0xfd, 0xe0, 0x2b, 0x1d, 0x14, 0x15, 0xd2,
  0xf6, 0x02, 0xdd, 0xef, 0x09, 0x00, 0x0b, 0x0f, 0x23, 0x02, 0xf7, 0x0f,
  0x12, 0xf6, 0x0f, 0xc7, 0x59, 0xfd, 0x09, 0xe7, 0xe6, 0x08, 0x2b, 0x15,
  0x33, 0x07, 0x0c, 0x06, 0xe3, 0xd6, 0x27, 0xea, 0x0e, 0xdb, 0xfc, 0x81,
  0xdc, 0x44, 0xa9, 0xef, 0xda, 0x07, 0x0c, 0xf7, 0xed, 0xfc, 0xc1, 0x06,
  0xc8, 0xf2, 0xea, 0xe9, 0xd8, 0xc6, 0x30, 0x35, 0xeb, 0x08, 0xca, 0x25,
  0x32, 0x17, 0x2e, 0x0a, 0xeb, 0x13, 0xf7, 0xe7, 0x09, 0xd0, 0xb6, 0xec,
  0x52, 0xfe, 0xf8, 0x16, 0x22, 0xeb, 0x20, 0x03, 0x22, 0x0a, 0xea, 0xe7,
  0x01, 0x42, 0x18, 0xef, 0xd4, 0x0b, 0xf8, 0x01, 0xd0, 0x01, 0xd7, 0xcf,
  0xcc, 0xfe, 0xc3, 0xf7, 0xf0, 0x0a, 0x10, 0xe5, 0xc4, 0xfb, 0x0f, 0xc5,
  0xa0, 0x16, 0x32, 0xe3, 0x11, 0xed, 0x2f, 0xf2, 0xf4, 0xa0, 0xfe, 0x26,
  0xb2, 0x00, 0xec, 0x18, 0xca, 0x43, 0x2c, 0xfe, 0xf3, 0x1d, 0x06, 0xf2,
  0x16, 0xf2, 0x08, 0x00, 0x01, 0xf0, 0x0f, 0x23, 0xf8, 0xff, 0x2f, 0x09,
  0xdf, 0xf1, 0xf2, 0xdd, 0x1c, 0x24, 0x1d, 0x02, 0x15, 0xf4, 0x2f, 0xed,
  0xee, 0x15, 0xe6, 0x09, 0x06, 0x22, 0x07, 0x22, 0x21, 0xd3, 0xed, 0xf4,
  0xf2, 0xfa, 0x19, 0xf8, 0xd1, 0xf8, 0x0d, 0x24, 0x1c, 0xe3, 0xda, 0x0c,
  0x2d, 0x2c, 0xed, 0xe2, 0xc9, 0x04, 0x39, 0xe3, 0xc0, 0x12, 0xf1, 0x38,
  0xe8, 0x01, 0xd5, 0xfb, 0x1b, 0xf6, 0x1f, 0x00, 0x19, 0xf8, 0x2d, 0xfa,
  0xf5, 0xcb, 0xed, 0x4a, 0x24, 0x07, 0xff, 0xed, 0x71, 0x0d, 0x06, 0x0c,
  0xc0, 0x9c, 0x24, 0xc3, 0x9c, 0xa1, 0x46, 0xcb, 0xf2, 0xf3, 0x24, 0x20,
  0x0d, 0x9b, 0x92, 0x9d, 0x5f, 0x8e, 0xcf, 0xb5, 0x4c, 0x8a, 0xf2, 0x40,
  0xf9, 0x96, 0x18, 0x9a, 0x09, 0x6c, 0x33, 0x2f, 0xfd, 0xb9, 0x13, 0xbc,
  0xde, 0xf6, 0x5b, 0x89, 0xfc, 0x3c, 0xf0, 0x58, 0xa6, 0xe3, 0x99, 0xda,
  0xbc, 0x5f, 0x98, 0x59, 0x52, 0xf4, 0x83, 0x34, 0x67, 0x81, 0x82, 0xcb,
  0x5d, 0xfa, 0x22, 0x66, 0xbf, 0xcc, 0x19, 0x6d, 0xd8, 0x3b, 0x51, 0x96,
  0x09, 0xfa, 0xca, 0x16, 0xf5, 0x96, 0x33, 0x36, 0x2d, 0xa3, 0xbe, 0xc8,
  0x43, 0xcc, 0x8c, 0x5f, 0x94, 0x96, 0xce, 0x91, 0xf9, 0x1d, 0x96, 0x51,
  0xd5, 0xf9, 0xb5, 0x49, 0xb1, 0x55, 0x40, 0xd2, 0xce, 0x1e, 0xf7, 0xf2,
  0xfb, 0x5c, 0xc6, 0x0e, 0x35, 0x06, 0xd9, 0x0b, 0xe4, 0x0e, 0x64, 0xec,
  0xff, 0x03, 0x3b, 0x0a, 0xd3, 0x5c, 0x2e, 0xd0, 0x5c, 0xe6, 0x36, 0xd8,
  0x18, 0xf2, 0x4f, 0xa3, 0xc2, 0x16, 0xac, 0x63, 0xb1, 0xbd, 0xba, 0x22,
  0xe7, 0x5b, 0x70, 0xec, 0xc7, 0xdd, 0x67, 0x85, 0x5b, 0xad, 0x9b, 0xf0,
  0x09, 0x40, 0xcf, 0xd7, 0x4f, 0xca, 0xbe, 0xda, 0xd3, 0x1f, 0x11, 0x2b,
  0xb7, 0xe8, 0x96, 0x05, 0x1e, 0x2e, 0x04, 0x93, 0xe6, 0xdb, 0xc5, 0x1b,
  0x3b, 0xe0, 0x1d, 0xa7, 0x56, 0xa5, 0x07, 0x3a, 0x48, 0x01, 0x70, 0xfa,
  0x68, 0xf9, 0x90, 0x9b, 0xf2, 0x90, 0x16, 0xa4, 0x41, 0x90, 0xdb, 0x07,
  0x3d, 0x30, 0x0b, 0xdc, 0x2c, 0x44, 0x91, 0xdc, 0x4d, 0xac, 0x19, 0xb9,
  0xab, 0x37, 0x6f, 0x99, 0xdd, 0xa2, 0xe7, 0x9f, 0xec, 0x60, 0x05, 0xa1,
  0x40, 0x51, 0xb0, 0x91, 0xea, 0xd4, 0xb7, 0x8e, 0xc2, 0x3f, 0x10, 0x25,
  0xcc, 0x06, 0xd6, 0xb6, 0xa4, 0xc9, 0xcd, 0xc0, 0xe5, 0xd6, 0xe9, 0xa0,
  0x2a, 0x1d, 0xe5, 0x03, 0x08, 0xf6, 0x18, 0x00, 0xf5, 0xfb, 0xf7, 0x25,
  0xed, 0xea, 0xf9, 0x04, 0x1a, 0x10, 0xfb, 0x0a, 0xf6, 0x03, 0x0a, 0xe0,
  0xe9, 0x13, 0x11, 0x09, 0xe4, 0x0e, 0x2d, 0x25, 0x05, 0xfd, 0x0e, 0xfd,
  0x08, 0x0f, 0xef, 0xe2, 0x14, 0xee, 0x07, 0x03, 0xe6, 0x18, 0x27, 0x24,
  0x15, 0x04, 0xe7, 0x12, 0x0f, 0xfc, 0x19, 0x0f, 0xfd, 0xf8, 0xc0, 0xfb,
  0x58, 0x0e, 0xf2, 0x1e, 0x1e, 0x0b, 0x07, 0x14, 0xfa, 0xfe, 0x16, 0xe5,
  0xe0, 0xd0, 0xfe, 0xee, 0x05, 0x19, 0x10, 0x1f, 0x0f, 0x38, 0xe7, 0xd8,
  0xe9, 0xf0, 0x0c, 0x02, 0x17, 0xe7, 0x0f, 0x2b, 0xd9, 0x19, 0xf4, 0x0e,
  0x00, 0x1d, 0xef, 0xc8, 0x36, 0x0e, 0xf0, 0xea, 0x31, 0xeb, 0xfc, 0x28,
  0xfb, 0xfe, 0x1b, 0xfa, 0xf7, 0x12, 0xb5, 0xf2, 0x52, 0x09, 0x0c, 0xf1,
  0x17, 0xf9, 0x9f, 0x17, 0xfc, 0xf2, 0xa4, 0xe5, 0xff, 0x1d, 0xfc, 0xf7,
  0xee, 0xf9, 0x19, 0xfd, 0xe4, 0xe3, 0xc5, 0xef, 0x14, 0xd4, 0xf2, 0xc9,
  0xf4, 0x48, 0x25, 0xfc, 0xa0, 0x08, 0x02, 0x13, 0xfc, 0x0e, 0xde, 0xe5,
  0x13, 0xf5, 0xe7, 0xdc, 0xec, 0xc2, 0x16, 0x39, 0xe8, 0x12, 0xd5, 0x1f,
  0x0f, 0x2a, 0x1a, 0xd8, 0x18, 0xf7, 0xf9, 0xe8, 0xfe, 0xe5, 0x12, 0x21,
  0x10, 0xf0, 0xca, 0x25, 0x26, 0x08, 0xf1, 0xce, 0xc4, 0x0a, 0xcc, 0xc2,
  0x01, 0x36, 0x13, 0x02, 0x0b, 0xf1, 0x11, 0xf7, 0x2b, 0x04, 0xcb, 0xd7,
  0xdb, 0x22, 0x06, 0x17, 0xea, 0x07, 0x27, 0x14, 0xc2, 0xf0, 0x07, 0x19,
  0xfa, 0x44, 0x22, 0xe8, 0xc6, 0x29, 0xe0, 0x15, 0xe0, 0xeb, 0x57, 0x25,
  0x81, 0x0a, 0xdb, 0x32, 0xfc, 0x29, 0x66, 0xeb, 0xce, 0x0f, 0xc1, 0x03,
  0xee, 0x05, 0x1e, 0x18, 0xe2, 0xf5, 0xf6, 0x14, 0xfd, 0x12, 0x03, 0xfe,
  0xd5, 0xf9, 0xfb, 0xe8, 0x3a, 0x0c, 0xeb, 0xe9, 0x2a, 0xf7, 0x0d, 0xf5,
  0x01, 0x08, 0xf1, 0x24, 0x13, 0xe5, 0x2c, 0xd9, 0x0a, 0x27, 0x16, 0x01,
  0x18, 0x11, 0x15, 0xf8, 0xe6, 0xf7, 0x1a, 0x03, 0xd1, 0x1e, 0x39, 0x26,
  0xf1, 0xf3, 0xec, 0xf6, 0x30, 0x0f, 0xf3, 0xe4, 0xfa, 0xf8, 0x02, 0x03,
  0xe7, 0x09, 0x25, 0x2a, 0x0d, 0xf3, 0xcc, 0xed, 0x12, 0x11, 0x2d, 0xf4,
  0x08, 0xd3, 0xb7, 0xed, 0x5c, 0xe5, 0xe7, 0x00, 0x17, 0x28, 0x11, 0x16,
  0xe6, 0x01, 0x15, 0xf0, 0xc1, 0xe7, 0xe9, 0xf5, 0xec, 0xd1, 0xec, 0xd7,
  0xf5, 0x14, 0xd1, 0xc3, 0xe6, 0x0a, 0xfe, 0xff, 0xea, 0xe4, 0x1d, 0x1d,
  0xd5, 0x13, 0x16, 0x2b, 0xd6, 0xd5, 0x0f, 0xde, 0x02, 0xf5, 0xd7, 0xf2,
  0x36, 0xec, 0x2c, 0x15, 0x04, 0xfc, 0x1c, 0x1a, 0x1d, 0xe3, 0xd3, 0x02,
  0x3d, 0xeb, 0x13, 0xfa, 0x0f, 0xd2, 0xe9, 0x48, 0x19, 0x00, 0xe2, 0x13,
  0xf8, 0x1a, 0xf3, 0xe9, 0xde, 0x01, 0x0c, 0xe6, 0xdf, 0xe7, 0xc5, 0xdb,
  0x0b, 0xd6, 0xea, 0x13, 0xe7, 0x58, 0x1f, 0x0f, 0x81, 0xf3, 0xdb, 0x02,
  0xe7, 0x1b, 0x34, 0xff, 0x13, 0xf3, 0x0e, 0x05, 0xe4, 0xc4, 0x35, 0x3a,
  0xfc, 0xf3, 0xe2, 0x21, 0x15, 0x20, 0x55, 0xff, 0xf2, 0x1f, 0x0d, 0x27,
  0x1d, 0xba, 0x12, 0xf9, 0x0d, 0xf3, 0x06, 0x45, 0x13, 0xea, 0x20, 0xee,
  0xe2, 0x17, 0xc9, 0x1e, 0x02, 0x4a, 0x14, 0x02, 0x1c, 0xf2, 0xf6, 0xe3,
  0x2b, 0x16, 0xd7, 0xcd, 0x1c, 0x27, 0xff, 0xf3, 0x0f, 0xed, 0x06, 0x08,
  0xf2, 0x0a, 0x11, 0x24, 0xd4, 0x30, 0xf1, 0xf0, 0xf2, 0x2d, 0xc8, 0x00,
  0xdc, 0xe4, 0x47, 0x44, 0xd3, 0x06, 0xe3, 0x2e, 0xee, 0x3d, 0x3e, 0x16,
  0xe8, 0x18, 0xd4, 0xf1, 0x0b, 0x1b, 0x1b, 0x1b, 0x10, 0x04, 0xf3, 0x04,
  0x1a, 0x12, 0x0a, 0x14, 0x0e, 0xe6, 0xf2, 0xd8, 0xe5, 0xb0, 0xee, 0x27,
  0x4a, 0xf4, 0xed, 0x4b, 0x54, 0xe7, 0x05, 0xe6, 0x2a, 0x1f, 0xf2, 0xfd,
  0x1b, 0x0e, 0xbd, 0x21, 0x2c, 0xf4, 0xfb, 0x2f, 0x4f, 0xd3, 0xe4, 0x1f,
  0x26, 0xf8, 0xbe, 0xe8, 0x2b, 0x19, 0x0b, 0x1c, 0xeb, 0x0d, 0x19, 0x5c,
  0x28, 0xfc, 0xe4, 0x2a, 0x10, 0x26, 0xe7, 0xee, 0x1b, 0x12, 0x66, 0xfa,
  0xfe, 0x03, 0xf9, 0x13, 0x4a, 0x17, 0x0c, 0x1d, 0xfa, 0x07, 0xe6, 0xed,
  0xf7, 0x1c, 0xf9, 0x37, 0xd5, 0x17, 0xd8, 0x42, 0x73, 0x68, 0xe1, 0xf2,
  0xe9, 0x40, 0xf2, 0x01, 0xf7, 0x95, 0x33, 0x26, 0x6e, 0x10, 0xfc, 0x50,
  0x2b, 0xfc, 0xbf, 0xce, 0x3f, 0x0b, 0xe8, 0xd1, 0x45, 0x24, 0xe6, 0x06,
  0x20, 0xfe, 0x60, 0x13, 0xdc, 0x0d, 0xd9, 0xf9, 0x15, 0xd9, 0xf1, 0xfc,
  0x0c, 0x38, 0x3b, 0x25, 0xd9, 0x18, 0xf6, 0x10, 0x1b, 0x24, 0xff, 0xc2,
  0xe4, 0x05, 0xf1, 0x18, 0xfc, 0xc3, 0xd4, 0x47, 0x1b, 0x05, 0x05, 0x08,
  0x04, 0x2f, 0x2f, 0x1a, 0xfb, 0x2c, 0xf1, 0xd2, 0x04, 0x99, 0xa8, 0xf5,
  0x66, 0xee, 0xe7, 0x17, 0x1e, 0xa1, 0xc4, 0xfe, 0x25, 0xdf, 0xc3, 0xa9,
  0x04, 0x53, 0xc5, 0xc1, 0x2b, 0x05, 0x42, 0xbe, 0xea, 0xb5, 0x98, 0x01,
  0xdd, 0xc0, 0xd6, 0x9e, 0x01, 0x45, 0xe6, 0xde, 0xb9, 0xf2, 0x15, 0xa7,
  0xa2, 0xdf, 0x06, 0x08, 0x16, 0xf1, 0xf8, 0xc8, 0x08, 0xee, 0x81, 0x08,
  0xeb, 0x12, 0xf5, 0x0e, 0xd9, 0xe5, 0xff, 0x0d, 0xf3, 0xd1, 0xc0, 0xb1,
  0x15, 0x12, 0xc9, 0xec, 0xe4, 0x0d, 0xf6, 0xef, 0x22, 0xa4, 0xc3, 0x1a,
  0xe0, 0xc0, 0xaa, 0xd7, 0x1f, 0x53, 0x85, 0xe3, 0x19, 0x12, 0x10, 0xb8,
  0x33, 0xba, 0x98, 0xf4, 0xd4, 0xc3, 0xdb, 0x00, 0x05, 0x10, 0xc8, 0xd5,
  0xce, 0xe9, 0x21, 0xfa, 0x15, 0x1f, 0xdb, 0xdf, 0xfe, 0xdb, 0xcc, 0xf3,
  0x00, 0xe3, 0x15, 0x0c, 0x06, 0x13, 0xe6, 0x21, 0x14, 0x21, 0x08, 0xde,
  0x08, 0x3f, 0xd2, 0x26, 0x08, 0x05, 0xfb, 0x29, 0xe9, 0x17, 0x0c, 0x03,
  0x10, 0x10, 0xf3, 0x19, 0x3b, 0xf8, 0xc3, 0xf4, 0x13, 0x18, 0xfb, 0x1e,
  0xe7, 0x0b, 0x0e, 0x19, 0xe8, 0x1f, 0xf7, 0x13, 0x1d, 0x07, 0xfb, 0xe1,
  0xfc, 0x06, 0x30, 0x37, 0xe6, 0x05, 0x06, 0x0b, 0x19, 0x2a, 0x1f, 0xff,
  0x91, 0x21, 0xdd, 0x01, 0xec, 0xf4, 0x12, 0xff, 0x25, 0x13, 0xf8, 0x30,
  0x3c, 0x39, 0x03, 0x0f, 0xec, 0x1b, 0x03, 0x17, 0x2b, 0xe8, 0x30, 0x13,
  0x3d, 0xfb, 0x00, 0x26, 0x12, 0x14, 0xcb, 0xd2, 0x25, 0xdd, 0xdc, 0xd2,
  0x29, 0x34, 0xef, 0xfe, 0xff, 0xfa, 0x1a, 0xed, 0xd4, 0x27, 0xce, 0xe6,
  0x16, 0xd9, 0xc3, 0x00, 0xed, 0x3f, 0x2f, 0x0d, 0xd7, 0xeb, 0x0d, 0xf6,
  0xec, 0x33, 0xeb, 0xc7, 0xef, 0x12, 0x18, 0x19, 0x27, 0xd5, 0xd7, 0x1b,
  0x19, 0xed, 0xfe, 0x08, 0x2a, 0x0d, 0x0a, 0x27, 0x05, 0x33, 0xf8, 0x0c,
  0x26, 0xbb, 0x9e, 0xf0, 0x7d, 0x05, 0x07, 0x0c, 0x3b, 0x01, 0xc3, 0x04,
  0x03, 0xf8, 0xe2, 0xd7, 0x1e, 0x7f, 0xc9, 0xb0, 0x2d, 0xfa, 0x25, 0xc4,
  0x11, 0xe7, 0x99, 0x2c, 0x0c, 0xcc, 0xe0, 0xdc, 0x08, 0x5e, 0xd4, 0xf2,
  0xe2, 0x12, 0x24, 0xe4, 0xe0, 0x3d, 0xdb, 0xf8, 0x0a, 0xf3, 0x1a, 0xe1,
  0x0e, 0xeb, 0xab, 0x11, 0xe4, 0xf0, 0xf9, 0xfe, 0xe6, 0xfc, 0x34, 0x10,
  0x03, 0xf1, 0xf8, 0xf1, 0x09, 0x1d, 0x03, 0x09, 0x11, 0xf1, 0x00, 0xec,
  0x32, 0xd9, 0xfa, 0x13, 0xec, 0xfa, 0x41, 0xf9, 0x2a, 0x27, 0xb0, 0xf6,
  0x3b, 0x0b, 0x20, 0xd5, 0x39, 0x01, 0x97, 0xe6, 0x27, 0xe6, 0x45, 0x33,
  0xf5, 0xd7, 0x14, 0x12, 0xee, 0xec, 0xe9, 0x11, 0xfe, 0x39, 0x1f, 0xc2,
  0x20, 0x32, 0x1d, 0x4d, 0x38, 0x41, 0xc5, 0xdc, 0x12, 0xf1, 0x09, 0xe3,
  0xf7, 0xf6, 0x0d, 0x3b, 0x03, 0xa3, 0xfb, 0x04, 0x0c, 0x1a, 0xf8, 0x19,
  0xd3, 0xfa, 0x15, 0xf0, 0x08, 0x28, 0x02, 0x17, 0xb8, 0xf7, 0x26, 0x13,
  0x04, 0x16, 0x01, 0x13, 0xef, 0xfa, 0x06, 0xdc, 0x1b, 0xfa, 0x00, 0xf5,
  0xf7, 0x09, 0x11, 0x1b, 0x0c, 0xf1, 0xe0, 0xec, 0xf8, 0xfa, 0x07, 0x0d,
  0x02, 0xd5, 0xcc, 0xf7, 0x76, 0x02, 0xf8, 0x13, 0x1f, 0x25, 0xf6, 0xff,
  0xea, 0x03, 0x22, 0xcf, 0xcb, 0xe6, 0x21, 0xec, 0x19, 0x10, 0x30, 0x0b,
  0x15, 0x2d, 0xe7, 0xe5, 0xc8, 0x06, 0x27, 0xe3, 0x01, 0x00, 0x2b, 0x32,
  0xdf, 0x51, 0xf7, 0x50, 0xed, 0xdc, 0x26, 0x04, 0xfc, 0xf8, 0xed, 0x07,
  0x2b, 0xfd, 0x18, 0x18, 0xfa, 0x19, 0x10, 0x06, 0x17, 0xf5, 0xea, 0xd1,
  0x5c, 0x02, 0x07, 0xfc, 0x01, 0xa7, 0xf1, 0x21, 0x33, 0xcd, 0xd6, 0xc9,
  0x04, 0x06, 0x05, 0xd7, 0xec, 0xf8, 0x2c, 0xfd, 0xe4, 0xc0, 0xbf, 0xef,
  0x38, 0xc3, 0xe4, 0xeb, 0xea, 0x5c, 0x1c, 0x12, 0x98, 0x03, 0x06, 0xe1,
  0xf1, 0xff, 0xca, 0xf1, 0xe4, 0xfc, 0xdd, 0x05, 0xff, 0xc2, 0x3d, 0x56,
  0xe4, 0xf0, 0xc5, 0x30, 0x2f, 0x38, 0x38, 0xee, 0xfd, 0x1f, 0xf9, 0xef,
  0xe5, 0xca, 0x18, 0xf9, 0x1c, 0xf5, 0xf6, 0x42, 0x3a, 0xe1, 0x25, 0xc6,
  0xe8, 0xfb, 0xd3, 0xc9, 0x18, 0x46, 0x40, 0x12, 0x0c, 0x08, 0x17, 0xf3,
  0x2d, 0x33, 0xc5, 0xec, 0xfb, 0x2b, 0x16, 0x07, 0x09, 0xdf, 0x09, 0x0f,
  0x03, 0xf1, 0xf0, 0xf3, 0xbf, 0x44, 0xf7, 0x0a, 0xdc, 0x37, 0xdd, 0x12,
  0xde, 0xf8, 0x7f, 0x2b, 0x9b, 0x17, 0xf2, 0x38, 0x9d, 0x3c, 0x5d, 0xf9,
  0xd2, 0x0a, 0xae, 0xfd, 0xe4, 0x4b, 0x00, 0xe9, 0x11, 0xf6, 0x14, 0xe4,
  0xf0, 0xe2, 0xfb, 0x1c, 0xde, 0xcd, 0xfc, 0xc7, 0x24, 0xd9, 0xe7, 0x06,
  0xfe, 0x4c, 0xc2, 0x99, 0xca, 0xb7, 0x40, 0xfc, 0xfa, 0xb6, 0xe5, 0x17,
  0x93, 0x50, 0x63, 0xf2, 0x24, 0x39, 0x8b, 0x0d, 0xdd, 0x27, 0x06, 0x92,
  0xe0, 0xb8, 0xe2, 0xe3, 0x1e, 0xad, 0xed, 0x48, 0xbc, 0xe4, 0x82, 0xc8,
  0x87, 0xc9, 0xc3, 0x40, 0xdc, 0x28, 0xe5, 0x1e, 0xdc, 0xaf, 0xbe, 0xa8,
  0x92, 0xf6, 0x43, 0xcc, 0xc1, 0xb0, 0x88, 0xc0, 0xee, 0xcd, 0x25, 0xf4,
  0x27, 0x0b, 0x9e, 0x36, 0xb7, 0xb2, 0x85, 0x9b, 0xad, 0xed, 0xd6, 0x99,
  0xdd, 0x11, 0x00, 0x20, 0xe4, 0x4a, 0x8f, 0xba, 0xad, 0xfc, 0xd0, 0x2d,
  0xfc, 0x45, 0xaa, 0x3c, 0xcc, 0xa3, 0x37, 0x23, 0x45, 0x69, 0x4c, 0x8a,
  0xdb, 0xa2, 0xda, 0xfd, 0x9b, 0xd7, 0x03, 0x30, 0xf5, 0xe3, 0xa8, 0xdd,
  0x41, 0xc3, 0xf1, 0xbe, 0x3c, 0x66, 0xec, 0x20, 0x98, 0xec, 0xef, 0xe1,
  0xf0, 0x9d, 0xe7, 0x96, 0x96, 0x47, 0x88, 0x28, 0x23, 0xeb, 0xc5, 0xae,
  0xfd, 0xfa, 0x17, 0xde, 0xa4, 0xcf, 0x8d, 0xba, 0xd6, 0x4b, 0xfc, 0x02,
  0xb0, 0xcb, 0x94, 0xb7, 0x94, 0x90, 0x84, 0x3a, 0x14, 0x8c, 0x93, 0xa6,
  0xea, 0x1f, 0xe8, 0x1e, 0x46, 0x28, 0x2f, 0xa6, 0x31, 0x38, 0x31, 0xb8,
  0xe2, 0x25, 0xa8, 0xfb, 0xeb, 0x10, 0xc0, 0x99, 0x2d, 0xdf, 0x81, 0x3d,
  0x9f, 0xe6, 0xd8, 0xf4, 0x04, 0xa7, 0xc2, 0xdf, 0xa4, 0xef, 0x4e, 0xe4,
  0x69, 0xd4, 0xff, 0x03, 0xe5, 0x48, 0xe1, 0x48, 0x0a, 0x3e, 0x8d, 0x9f,
  0x25, 0x1a, 0x0b, 0x02, 0xd8, 0x31, 0xa7, 0x10, 0x03, 0x95, 0x13, 0x5d,
  0xd2, 0x8f, 0xdc, 0xfb, 0xd1, 0x06, 0xda, 0x1d, 0x26, 0x0f, 0xae, 0xca,
  0xa0, 0x44, 0xc2, 0xd7, 0xdf, 0xed, 0xd9, 0x16, 0x3f, 0xb9, 0xd7, 0x39,
  0xb6, 0x49, 0xd0, 0xb8, 0x3c, 0xb5, 0x1a, 0xf2, 0x4b, 0x04, 0x89, 0xb8,
  0x04, 0xd7, 0x11, 0x13, 0xec, 0x13, 0x03, 0x2f, 0x17, 0x1c, 0xfa, 0xe7,
  0xff, 0x3e, 0xe9, 0x08, 0x15, 0xe5, 0xee, 0x2c, 0xfb, 0x18, 0xe9, 0x30,
  0x25, 0xf9, 0x0b, 0x0e, 0x28, 0xf9, 0xe5, 0xf4, 0x24, 0x0f, 0x1b, 0x19,
  0xd6, 0xf7, 0x07, 0x1b, 0x0c, 0x3a, 0xf9, 0x1d, 0x1d, 0x20, 0xd5, 0x02,
  0xfe, 0x34, 0x4b, 0x31, 0xd5, 0x13, 0xe9, 0xf4, 0xfe, 0x2d, 0x1b, 0x04,
  0x9c, 0x44, 0xf2, 0xd9, 0x1c, 0x0f, 0xee, 0xe7, 0x35, 0x08, 0x15, 0x2f,
  0x65, 0x40, 0x05, 0x18, 0xe9, 0x25, 0xef, 0x3f, 0x0f, 0xbe, 0x31, 0x02,
  0x47, 0xe9, 0xed, 0x14, 0x10, 0x20, 0xd3, 0xd0, 0x2e, 0xcb, 0xe5, 0xc9,
  0x38, 0x2a, 0xf9, 0x04, 0x27, 0x07, 0x20, 0x14, 0xe7, 0x12, 0xc5, 0xea,
  0x10, 0xd4, 0xb7, 0x06, 0xe7, 0x27, 0x29, 0x01, 0xf2, 0x12, 0x17, 0xe7,
  0xe6, 0x3e, 0xf7, 0xce, 0xd5, 0xf5, 0x07, 0xf0, 0x1f, 0xed, 0xed, 0xfe,
  0x21, 0x0b, 0xf6, 0x34, 0x3e, 0x40, 0x27, 0x04, 0xdb, 0x4a, 0xfd, 0x0d,
  0x04, 0xca, 0x9c, 0x0b, 0x7f, 0x17, 0x20, 0x31, 0x41, 0xe2, 0xab, 0x1e,
  0xe0, 0x08, 0xe7, 0xd3, 0xf9, 0x79, 0xd1, 0xaa, 0x21, 0x11, 0x3e, 0xca,
  0xf0, 0xe6, 0x9c, 0x00, 0xe5, 0xd2, 0x0c, 0xd6, 0x0b, 0x66, 0xd7, 0x01,
  0xe5, 0xe6, 0x2f, 0xc0, 0xfb, 0x23, 0x03, 0x11, 0x1e, 0xe8, 0x22, 0xde,
  0x0b, 0xf3, 0xad, 0x08, 0xf9, 0xf5, 0xe5, 0x1d, 0xbf, 0xda, 0x3f, 0x23,
  0x09, 0xf0, 0xed, 0xe3, 0x29, 0x1f, 0x02, 0xfe, 0x21, 0x0f, 0x1c, 0x03,
  0x1c, 0xcf, 0x14, 0x1a, 0x20, 0xee, 0x25, 0x09, 0x19, 0x3c, 0xcd, 0xdf,
  0x3b, 0xf9, 0x04, 0xf0, 0x27, 0xf3, 0x9e, 0xff, 0x1e, 0xfb, 0x71, 0x22,
  0x22, 0xd6, 0x09, 0x00, 0xf7, 0xe9, 0xe0, 0x1c, 0xf5, 0x28, 0x01, 0xd5,
  0x31, 0x33, 0x03, 0x34, 0x99, 0x1c, 0x01, 0x08, 0x4f, 0x5d, 0x45, 0x3e,
  0xf3, 0xf5, 0x8a, 0xb7, 0xc2, 0x45, 0x1e, 0x2d, 0xd5, 0x51, 0x9b, 0x3a,
  0xbf, 0xe2, 0x91, 0xa9, 0xf5, 0x19, 0x59, 0x10, 0xf6, 0x9d, 0xcd, 0x03,
  0x8e, 0x29, 0xff, 0x28, 0xcd, 0xd4, 0x88, 0x16, 0x21, 0xb7, 0xb7, 0x94,
  0xf2, 0x29, 0x94, 0x91, 0xa2, 0xa9, 0x53, 0x12, 0x8a, 0x3b, 0xdc, 0xb0,
  0x12, 0x14, 0x2b, 0x25, 0x38, 0x43, 0x04, 0x04, 0x0f, 0x3a, 0x89, 0xbe,
  0xfc, 0xea, 0x43, 0xb2, 0x12, 0xa7, 0x33, 0xdd, 0xb3, 0x32, 0x12, 0xb9,
  0x0f, 0x8e, 0x11, 0x17, 0x53, 0x18, 0xa5, 0x9a, 0x03, 0x2d, 0xcc, 0xb3,
  0x16, 0x36, 0x44, 0xa8, 0xaa, 0xf6, 0xda, 0xe0, 0x07, 0xe5, 0xb6, 0xa1,
  0x81, 0xb0, 0x4a, 0xb7, 0x11, 0xb0, 0xb6, 0x0a, 0x9c, 0xb3, 0x23, 0x2a,
  0x39, 0xd2, 0xb0, 0x42, 0xf4, 0xdc, 0x4c, 0xc3, 0xc3, 0x45, 0xb2, 0xf1,
  0x9e, 0x16, 0x54, 0xb8, 0xda, 0x3d, 0xe9, 0xfc, 0xf6, 0xa7, 0xf9, 0x3e,
  0xa9, 0x25, 0xde, 0xa0, 0xe7, 0x24, 0x9d, 0xe5, 0xe8, 0xaa, 0x02, 0xb9,
  0xc0, 0xab, 0x4f, 0xc7, 0x2f, 0x27, 0xd3, 0x12, 0x48, 0xa9, 0xf5, 0x43,
  0x00, 0x3d, 0x82, 0x90, 0xeb, 0x28, 0xcb, 0x99, 0xa5, 0x1e, 0xb1, 0x1d,
  0x31, 0xd7, 0xe2, 0xdc, 0xbe, 0x1e, 0xf3, 0x97, 0xaf, 0x52, 0x25, 0x8d,
  0x19, 0x9b, 0xa4, 0x49, 0x41, 0xe5, 0x9d, 0x6f, 0xf0, 0xac, 0xab, 0x87,
  0xf8, 0x71, 0xa5, 0xf5, 0x86, 0x1b, 0x5a, 0xc7, 0x2e, 0x35, 0x33, 0xf3,
  0x32, 0xef, 0xa9, 0xcb, 0x93, 0x63, 0xdc, 0x2f, 0x14, 0xf5, 0xe6, 0x97,
  0x4f, 0x14, 0xff, 0xc1, 0xa3, 0xe8, 0x1a, 0x96, 0xd4, 0xb9, 0xe6, 0xf9,
  0x40, 0x60, 0xb8, 0xc1, 0xbd, 0x62, 0xb6, 0x12, 0xf7, 0xe2, 0x0a, 0xae,
  0xd2, 0x05, 0xef, 0xef, 0x1b, 0xe2, 0x38, 0x9d, 0x1d, 0x5c, 0xe1, 0xe8,
  0xd1, 0x02, 0x08, 0xe6, 0xee, 0x0a, 0xe3, 0x19, 0xc5, 0xef, 0xff, 0x06,
  0xf2, 0x17, 0xf6, 0xf3, 0xdd, 0xf3, 0x0a, 0x08, 0xfa, 0x1d, 0xcb, 0xf1,
  0xa6, 0xee, 0xe8, 0xf0, 0xec, 0x1a, 0xed, 0x0e, 0x31, 0x06, 0xfe, 0x06,
  0x07, 0x07, 0x1f, 0xc8, 0xdd, 0xde, 0x00, 0xe3, 0xf4, 0x17, 0xcb, 0x0f,
  0x2f, 0xf0, 0xf6, 0x11, 0xf4, 0x30, 0xf0, 0xdf, 0x1e, 0x1c, 0x2f, 0xd9,
  0x23, 0x2e, 0x05, 0xf6, 0xf5, 0xf0, 0x11, 0x02, 0xf7, 0xf6, 0xe4, 0x03,
  0xd2, 0xf4, 0xf9, 0xf9, 0xeb, 0x36, 0xf1, 0x14, 0xbf, 0x06, 0xfb, 0xf1,
  0xfc, 0x28, 0xe7, 0x09, 0xb6, 0xf7, 0xef, 0x15, 0xe1, 0xbc, 0x23, 0x2d,
  0xf7, 0xf0, 0xbd, 0x22, 0x15, 0xff, 0x11, 0x0e, 0x08, 0x25, 0xf8, 0xf3,
  0xf2, 0xc3, 0xad, 0xf9, 0x43, 0x04, 0xf9, 0xfa, 0x31, 0x06, 0x16, 0x1f,
  0x1e, 0xf2, 0x15, 0xd4, 0xfc, 0x0d, 0x1f, 0xf5, 0x03, 0xf6, 0x1d, 0x0c,
  0xf4, 0x15, 0xe0, 0x15, 0x03, 0x0b, 0xfe, 0x11, 0x03, 0xfd, 0x64, 0x39,
  0xee, 0xef, 0xe9, 0x18, 0xe6, 0x3a, 0x3e, 0x0b, 0x09, 0x2e, 0x0c, 0x2c,
  0x0b, 0x9b, 0x02, 0x16, 0xb8, 0x0b, 0xe3, 0x04, 0xca, 0x04, 0x5d, 0xf9,
  0xf3, 0x1f, 0x13, 0x0f, 0x00, 0xdf, 0xc4, 0x1e, 0xbd, 0x11, 0xeb, 0x34,
  0xf7, 0x13, 0xd3, 0x12, 0xcd, 0xf1, 0x9d, 0xea, 0x27, 0xf6, 0x1b, 0xfb,
  0x28, 0xf3, 0x3a, 0x0c, 0x0b, 0x19, 0x14, 0x0e, 0x1d, 0x29, 0x2d, 0x3f,
  0x24, 0xea, 0x1a, 0x13, 0x18, 0x0f, 0x34, 0x0c, 0xe6, 0x25, 0xfb, 0x22,
  0x12, 0x0e, 0xdf, 0x1d, 0x11, 0xee, 0xd1, 0xcc, 0xd7, 0x0c, 0x2d, 0xf9,
  0xb1, 0xf2, 0xe6, 0x38, 0x08, 0xc2, 0xc5, 0xdf, 0x01, 0xf4, 0xc4, 0x07,
  0x00, 0xf5, 0x1a, 0xe9, 0xda, 0x04, 0x81, 0x31, 0xe7, 0xd0, 0xac, 0xb0,
  0x03, 0x00, 0x19, 0x27, 0xef, 0xf4, 0xf5, 0x1d, 0x14, 0x13, 0x0b, 0xff,
  0x08, 0x3c, 0xeb, 0x19, 0x07, 0xeb, 0x02, 0x11, 0x08, 0x13, 0xfd, 0x25,
  0x21, 0x13, 0x0a, 0x0d, 0x17, 0x13, 0xc8, 0xf6, 0x26, 0x1a, 0x0d, 0x2c,
  0xf1, 0xf1, 0x0f, 0x24, 0x00, 0x1f, 0xe9, 0x04, 0x15, 0x1c, 0xe9, 0xe0,
  0xfa, 0x28, 0x3c, 0x2f, 0xf6, 0x0d, 0xf4, 0x02, 0x11, 0x20, 0x20, 0xf1,
  0xb0, 0x0f, 0xeb, 0xfe, 0xfc, 0x04, 0x04, 0xe8, 0x0b, 0xfb, 0x0f, 0x16,
  0x29, 0x21, 0xfd, 0x2a, 0x02, 0x10, 0xf1, 0x15, 0x1b, 0xcc, 0x28, 0x12,
  0x36, 0x0a, 0xfb, 0x0f, 0x03, 0xfd, 0xea, 0xe5, 0x3c, 0xf0, 0x01, 0xe0,
  0x1e, 0x38, 0xed, 0x09, 0xfe, 0x08, 0x1a, 0xff, 0xd3, 0x23, 0xeb, 0xd8,
  0xf7, 0xe1, 0xd5, 0xed, 0x04, 0x29, 0x23, 0x1b, 0xd5, 0xf4, 0x01, 0x04,
  0xf6, 0x16, 0xe9, 0xd3, 0xfb, 0x0c, 0x0c, 0xff, 0x16, 0xf4, 0xe0, 0xff,
  0x1c, 0xed, 0xfd, 0x1c, 0x3a, 0x11, 0x10, 0x20, 0xfe, 0x32, 0x0d, 0x0d,
  0x07, 0xe3, 0xbf, 0xe7, 0x7f, 0xf9, 0x04, 0x06, 0x2c, 0x01, 0xda, 0x15,
  0xde, 0x16, 0xe6, 0xf0, 0xfa, 0x55, 0xde, 0xbb, 0x14, 0xed, 0x2f, 0xeb,
  0xff, 0xdd, 0xbe, 0x11, 0xf7, 0xea, 0xe9, 0xe8, 0x06, 0x4a, 0xda, 0xfb,
  0xe8, 0xed, 0x26, 0xc6, 0xe3, 0x2c, 0xde, 0x08, 0x24, 0xfa, 0x1a, 0x01,
  0xfb, 0xe4, 0xce, 0xff, 0xf7, 0xf3, 0x01, 0x14, 0xd9, 0xf6, 0x1c, 0x1b,
  0xef, 0xf1, 0xf5, 0xf2, 0x17, 0x13, 0xf0, 0x10, 0x02, 0x08, 0x06, 0x0f,
  0x25, 0xdd, 0x08, 0x0e, 0xfc, 0xf3, 0x1d, 0xfe, 0x26, 0x0f, 0xb6, 0xd9,
  0x36, 0x02, 0x09, 0xfa, 0x34, 0x02, 0xbb, 0xef, 0x06, 0xf5, 0x33, 0x19,
  0x05, 0xfb, 0x0d, 0x12, 0xfb, 0x06, 0xf8, 0x1b, 0x0b, 0x22, 0xf8, 0xd8,
  0x05, 0x14, 0xff, 0x30, 0xf4, 0xe3, 0xfe, 0x13, 0xf4, 0xf7, 0xf8, 0x2b,
  0x1e, 0x02, 0xf7, 0xfe, 0x1d, 0x21, 0xeb, 0x2c, 0x16, 0xea, 0xf8, 0x2f,
  0x03, 0xf2, 0xe9, 0x11, 0x36, 0xfb, 0xeb, 0xfa, 0x1a, 0xff, 0xe3, 0xdd,
  0x24, 0xfc, 0x09, 0x0c, 0xd3, 0xf9, 0x0c, 0x25, 0xf0, 0x0d, 0xe5, 0x03,
  0x14, 0x0e, 0xdd, 0xf3, 0x08, 0x26, 0x49, 0x2d, 0xe2, 0xfe, 0xfd, 0x06,
  0xfd, 0x11, 0x35, 0xfe, 0x9f, 0x20, 0xe7, 0xef, 0xf5, 0xf8, 0xf2, 0xfd,
  0x32, 0xed, 0x12, 0x31, 0x34, 0x38, 0x03, 0x31, 0xed, 0x33, 0xfd, 0x11,
  0x15, 0xc5, 0x29, 0x14, 0x2a, 0x13, 0x0e, 0x09, 0x21, 0x1a, 0xd9, 0xed,
  0x39, 0xe9, 0xe8, 0xcf, 0x42, 0x1c, 0x05, 0x20, 0x2a, 0xef, 0x2c, 0x10,
  0xed, 0x1b, 0xeb, 0xf1, 0xf6, 0xde, 0xe7, 0xe6, 0xef, 0x4e, 0x39, 0x07,
  0xe2, 0xf0, 0xf9, 0xf5, 0xe5, 0x3b, 0xdd, 0xbe, 0xe3, 0x09, 0x24, 0x14,
  0x29, 0xd8, 0xeb, 0x25, 0x32, 0x07, 0xfb, 0x2f, 0x41, 0x1e, 0x1e, 0x0c,
  0x07, 0x32, 0xef, 0xf3, 0x0d, 0xd2, 0xa0, 0xfb, 0x73, 0x0d, 0x0c, 0x2b,
  0x2d, 0xf7, 0xc4, 0x0b, 0xd6, 0x03, 0xc6, 0xd3, 0x19, 0x7f, 0xdf, 0xc8,
  0x29, 0x0a, 0x23, 0xc7, 0xf4, 0xda, 0xb0, 0x12, 0xed, 0xd4, 0xe1, 0xdb,
  0x0d, 0x4b, 0xf6, 0x0a, 0xf1, 0xf4, 0x30, 0xbb, 0xee, 0x2a, 0xee, 0xf5,
  0x23, 0xe8, 0x33, 0x01, 0xf0, 0xd1, 0xbb, 0x05, 0xff, 0x04, 0x04, 0xfc,
  0xc8, 0xed, 0x11, 0x18, 0x00, 0xd3, 0xf3, 0xd7, 0xfe, 0x14, 0xf2, 0xfa,
  0x05, 0xf5, 0x14, 0x01, 0x32, 0xc9, 0xf0, 0x06, 0x0c, 0x03, 0x30, 0x0f,
  0x0b, 0x2f, 0xc2, 0xd4, 0x54, 0x06, 0x24, 0xf5, 0x4a, 0x03, 0xaf, 0xe8,
  0x20, 0x09, 0x4c, 0x25, 0x08, 0xdb, 0xf2, 0xfb, 0x0c, 0xee, 0xe4, 0x12,
  0x1c, 0x2e, 0x14, 0xca, 0x2b, 0x34, 0xfb, 0x25, 0x8e, 0xf7, 0xff, 0xff,
  0x04, 0x00, 0x00, 0x00, 0x80, 0x04, 0x00, 0x00, 0xe4, 0x02, 0xf1, 0x0c,
  0xfc, 0xd0, 0xf0, 0x18, 0xda, 0x19, 0xe5, 0x14, 0x0f, 0x0a, 0xdf, 0x09,
  0xff, 0x07, 0x2f, 0x05, 0xeb, 0x20, 0xe2, 0x22, 0xeb, 0xec, 0xfe, 0x25,
  0x10, 0xf8, 0xb2, 0x15, 0x02, 0xf0, 0xe7, 0x18, 0x25, 0xe5, 0xed, 0x25,
  0xfd, 0xfe, 0xf1, 0x26, 0xea, 0xe4, 0x1e, 0x35, 0xea, 0x23, 0x1f, 0xc4,
  0x0d, 0x07, 0xe4, 0x2f, 0x17, 0x5e, 0xeb, 0x81, 0x52, 0x39, 0xd1, 0x2d,
  0x0a, 0x48, 0x2e, 0xf0, 0x38, 0x4f, 0xd4, 0x2f, 0xdc, 0xdf, 0xeb, 0xbb,
  0xff, 0x13, 0x08, 0xf7, 0xf0, 0x01, 0xd8, 0xe3, 0x09, 0xec, 0xf9, 0x01,
  0x1b, 0x0e, 0x1d, 0x0b, 0x0e, 0x0e, 0x00, 0x04, 0xf9, 0xdc, 0xf6, 0xc3,
  0xef, 0xde, 0xbe, 0x16, 0x0b, 0xe9, 0xde, 0xe1, 0xcb, 0xd9, 0xf9, 0x07,
  0x1a, 0x06, 0xfe, 0x06, 0xf3, 0xf4, 0x42, 0xd6, 0xf6, 0xe0, 0xf9, 0x23,
  0xb5, 0xd7, 0x57, 0x03, 0xef, 0x34, 0x06, 0x1a, 0xc1, 0xc1, 0x7f, 0x00,
  0x14, 0x18, 0x11, 0x09, 0xfa, 0xd4, 0x3f, 0xe9, 0xeb, 0xc6, 0xe0, 0xc4,
  0xdc, 0x56, 0xed, 0x01, 0x5d, 0x33, 0x32, 0xfd, 0x1c, 0x48, 0x44, 0xf6,
  0x2e, 0x24, 0xfb, 0xc9, 0x1d, 0xad, 0xed, 0xe5, 0x2d, 0xc4, 0xc6, 0x0b,
  0xe1, 0x39, 0xe8, 0x0a, 0x45, 0x07, 0x7c, 0x1b, 0x52, 0xfd, 0x41, 0xe5,
  0x04, 0xe6, 0x1f, 0x8a, 0x1d, 0x81, 0xfb, 0xea, 0xea, 0xf0, 0xab, 0xd5,
  0xdb, 0x04, 0xbc, 0x22, 0x1a, 0x21, 0x3a, 0x0a, 0x3f, 0xd7, 0xf8, 0x17,
  0xed, 0xff, 0xde, 0xa5, 0xfb, 0xa4, 0xd3, 0xfe, 0xd8, 0xd8, 0xb3, 0xf3,
  0x19, 0xfa, 0xe4, 0x01, 0x37, 0xfb, 0x0c, 0x40, 0xf0, 0x17, 0x1d, 0xe4,
  0x26, 0xcb, 0x3e, 0x0a, 0x0c, 0xd1, 0x0d, 0xfd, 0x18, 0xc6, 0xe8, 0xe2,
  0x09, 0x16, 0xa4, 0xee, 0x56, 0xeb, 0x58, 0x20, 0x1f, 0x3b, 0xed, 0xdc,
  0x52, 0xe9, 0x33, 0xcc, 0x18, 0xec, 0xf9, 0xf4, 0xc6, 0xdc, 0x81, 0xc1,
  0xfd, 0x10, 0x93, 0x22, 0x21, 0xf3, 0x26, 0x17, 0x2f, 0x2c, 0x08, 0xfa,
  0x1c, 0x12, 0x35, 0xd4, 0x3f, 0xb0, 0xf9, 0xf1, 0x0c, 0x37, 0xf9, 0xf7,
  0xf6, 0x09, 0x11, 0x06, 0x08, 0x15, 0x0b, 0xed, 0x21, 0x14, 0x06, 0xf5,
  0x0a, 0xfd, 0xfa, 0x09, 0x0f, 0x06, 0x18, 0x05, 0x0e, 0xe7, 0xfe, 0xe6,
  0xd9, 0xfa, 0xf1, 0xff, 0x05, 0xec, 0xfd, 0xb8, 0xeb, 0x0a, 0xeb, 0x05,
  0xfa, 0xf7, 0xe3, 0xc1, 0xd5, 0x16, 0xde, 0xf4, 0x2d, 0xdc, 0x1c, 0x25,
  0x05, 0x20, 0x28, 0xed, 0x17, 0x9e, 0x03, 0x0f, 0xed, 0xd3, 0xfb, 0xf5,
  0x0a, 0x81, 0x08, 0xda, 0xe5, 0xbb, 0xe9, 0x0a, 0x53, 0x23, 0xf1, 0x2d,
  0x51, 0x44, 0x57, 0x9e, 0x9a, 0x63, 0xe8, 0x5b, 0xaf, 0xa9, 0x9a, 0xd2,
  0x52, 0xab, 0x1e, 0xb3, 0x04, 0x4f, 0x81, 0x9d, 0x2e, 0x07, 0x98, 0xe6,
  0x2b, 0xd8, 0x3e, 0x2b, 0x17, 0xdd, 0x9b, 0x64, 0x8f, 0x8a, 0x92, 0xd6,
  0xc8, 0xa8, 0xd8, 0x0b, 0x93, 0xa1, 0xfc, 0xa2, 0xed, 0xfd, 0xb4, 0xe5,
  0xd0, 0x8a, 0x32, 0x94, 0x0d, 0x52, 0xfe, 0x69, 0xef, 0xe8, 0xac, 0x03,
  0xf6, 0xa7, 0x6b, 0x62, 0xf3, 0xdb, 0x02, 0xce, 0xeb, 0x02, 0xe3, 0xd1,
  0xc7, 0xca, 0x00, 0x02, 0x09, 0x00, 0x07, 0xe8, 0xd4, 0xda, 0x03, 0x12,
  0x27, 0x2d, 0x2b, 0x07, 0x21, 0xf5, 0x0c, 0x14, 0x04, 0x16, 0x20, 0xfa,
  0x10, 0xd6, 0x09, 0x05, 0x05, 0x29, 0x10, 0xd1, 0xf5, 0xee, 0xe2, 0x12,
  0x1d, 0x01, 0x1c, 0xc7, 0xd8, 0x06, 0xda, 0x1e, 0x16, 0xe8, 0x4e, 0x1d,
  0x32, 0xe4, 0xf3, 0x16, 0xf2, 0x9a, 0x27, 0xf7, 0x02, 0x1d, 0xe6, 0x27,
  0x01, 0x99, 0x0c, 0x38, 0x81, 0xee, 0x19, 0x12, 0x3a, 0x02, 0x29, 0x1f,
  0x29, 0x3f, 0x12, 0xda, 0x2b, 0x02, 0x43, 0x42, 0x2d, 0xfc, 0x27, 0xdf,
  0xe2, 0xf3, 0x0d, 0x12, 0x29, 0xc5, 0xe1, 0x2b, 0x20, 0xbb, 0x09, 0xe9,
  0x13, 0x34, 0x9f, 0xdd, 0x46, 0xf3, 0x77, 0x05, 0x50, 0x5d, 0x15, 0xea,
  0x17, 0xf4, 0x1f, 0xd8, 0x73, 0x81, 0xf3, 0xfe, 0xba, 0xcf, 0x84, 0xa9,
  0xea, 0x06, 0x9a, 0x16, 0x40, 0xf8, 0x1a, 0x13, 0x42, 0x31, 0xdb, 0xfa,
  0x2a, 0xff, 0x40, 0x31, 0x6d, 0xef, 0xf8, 0x03, 0xe5, 0x31, 0xee, 0x9c,
  0x27, 0xce, 0xf7, 0x0c, 0xed, 0x2c, 0xcd, 0x98, 0xfa, 0xe8, 0xd5, 0x12,
  0xcc, 0x2c, 0xce, 0x93, 0xfb, 0x01, 0xe2, 0x12, 0x25, 0x06, 0x02, 0xf9,
  0x20, 0x39, 0x1a, 0x06, 0x0d, 0xce, 0x20, 0x2c, 0x00, 0xe4, 0x1b, 0xd8,
  0x04, 0x81, 0x11, 0x16, 0x2c, 0x99, 0xe6, 0xe4, 0x12, 0x24, 0xfc, 0x08,
  0xe4, 0x25, 0x06, 0x04, 0x29, 0x2b, 0x34, 0x32, 0x1b, 0x46, 0x05, 0xf8,
  0x38, 0x2e, 0x18, 0x1c, 0xfe, 0x3f, 0x08, 0xf5, 0x94, 0x9c, 0xac, 0xbf,
  0xba, 0x02, 0xc0, 0x1f, 0xf0, 0x0d, 0x04, 0x33, 0xe7, 0x18, 0x32, 0xe0,
  0x14, 0x1b, 0x24, 0x2f, 0x08, 0x10, 0x60, 0xb8, 0xbf, 0x19, 0xe3, 0xe0,
  0xcc, 0xc7, 0xfa, 0x11, 0x2a, 0x1f, 0x46, 0x43, 0x07, 0x1d, 0xf0, 0x03,
  0x54, 0xf0, 0x7f, 0xfc, 0x00, 0x2f, 0x14, 0xe3, 0xf2, 0x0f, 0xfc, 0x96,
  0x1a, 0xe1, 0xfe, 0x28, 0x04, 0x0a, 0xf3, 0xd2, 0xf5, 0x44, 0x1a, 0x0e,
  0x4a, 0x39, 0x41, 0xf2, 0x2b, 0x29, 0x57, 0xe2, 0x44, 0x0b, 0x1f, 0x00,
  0xe7, 0x2e, 0x30, 0xbc, 0x35, 0x01, 0xff, 0xf8, 0x34, 0x28, 0x2a, 0xd0,
  0x17, 0xca, 0xcf, 0xd2, 0xee, 0x1c, 0xd8, 0xe4, 0x7d, 0xa1, 0x7f, 0x4a,
  0x3c, 0x31, 0x3a, 0xe1, 0x29, 0xc5, 0x3b, 0xcf, 0x76, 0xe0, 0xe0, 0x07,
  0xcb, 0xed, 0xde, 0x91, 0xdc, 0x00, 0xdb, 0x0a, 0xf8, 0x1d, 0x0f, 0x11,
  0xd8, 0x28, 0x11, 0x0e, 0xd8, 0x01, 0xe7, 0xee, 0x12, 0xb8, 0xfe, 0x19,
  0x9a, 0x0e, 0x91, 0x95, 0xe7, 0xad, 0x96, 0x48, 0x0e, 0xe0, 0xf7, 0x81,
  0xf6, 0xf6, 0x1e, 0x08, 0xf6, 0x03, 0xdc, 0xb9, 0xf4, 0x05, 0xfb, 0x13,
  0x09, 0x17, 0x03, 0xff, 0xd7, 0x1f, 0xfd, 0x10, 0xe8, 0x0b, 0xea, 0xaf,
  0xfb, 0x09, 0xf9, 0x15, 0xcc, 0x04, 0xd7, 0xd8, 0x0a, 0x0b, 0xe7, 0x16,
  0x0b, 0x37, 0x1e, 0x08, 0xef, 0x05, 0xe3, 0x0d, 0xd2, 0x03, 0xe6, 0xf6,
  0xdf, 0xe6, 0xd4, 0x26, 0xe5, 0x02, 0xf9, 0xfa, 0xd8, 0x00, 0xf0, 0x1a,
  0x0f, 0x19, 0xee, 0x09, 0xe1, 0x03, 0xf2, 0x1f, 0x07, 0x46, 0x4f, 0x7f,
  0x37, 0xf8, 0x2d, 0x13, 0x18, 0x23, 0x3e, 0x62, 0x1b, 0xd8, 0x14, 0x17,
  0x01, 0x00, 0x31, 0x22, 0x33, 0xe1, 0xd4, 0x2f, 0x1b, 0xfa, 0x3c, 0x59,
  0x40, 0x18, 0x11, 0x12, 0x23, 0x92, 0x2f, 0x09, 0xf9, 0xe6, 0x16, 0xeb,
  0xc3, 0xa4, 0xe9, 0xbb, 0xf8, 0xb9, 0xd3, 0x08, 0x3d, 0xfa, 0x1b, 0xf3,
  0x0e, 0x1f, 0x0b, 0xf7, 0x23, 0xcd, 0xda, 0xb0, 0xf6, 0x09, 0xdc, 0xf2,
  0xe4, 0xaa, 0xe1, 0x87, 0x6d, 0x87, 0xc3, 0x09, 0xe6, 0xb2, 0xd7, 0xec,
  0xeb, 0x17, 0x2c, 0xef, 0x2d, 0x40, 0xef, 0x1c, 0xf3, 0x4a, 0x48, 0xe4,
  0x7f, 0x07, 0x55, 0x11, 0x1b, 0x0f, 0x0f, 0xb5, 0x0b, 0xd4, 0x1c, 0xf6,
  0x20, 0x2c, 0xbf, 0xeb, 0x46, 0xc0, 0x53, 0x31, 0x44, 0x27, 0xc9, 0xfb,
  0x4f, 0x01, 0x6c, 0x49, 0x5d, 0x16, 0x37, 0xfc, 0xad, 0x07, 0xe3, 0x91,
  0xfc, 0xf7, 0xae, 0x10, 0xb8, 0x29, 0x8a, 0x9b, 0x09, 0xff, 0x82, 0x30,
  0xf1, 0x1b, 0xd5, 0xe4, 0x36, 0xde, 0xb9, 0x2b, 0x0f, 0x0e, 0x17, 0x2d,
  0xfd, 0x05, 0x0f, 0xe3, 0x26, 0x36, 0x3f, 0x53, 0x17, 0x17, 0x2d, 0xea,
  0x28, 0x18, 0x30, 0x51, 0x1f, 0x3f, 0x1b, 0xe9, 0x25, 0x11, 0x51, 0xf5,
  0x33, 0x9d, 0x49, 0x0d, 0xfd, 0xf7, 0x3a, 0xe4, 0xef, 0xf9, 0xf0, 0x3a,
  0xe2, 0xf7, 0x0c, 0xc7, 0xda, 0x16, 0xd0, 0x2b, 0x13, 0x2a, 0x40, 0x24,
  0x7f, 0xeb, 0x2b, 0xf5, 0xda, 0x00, 0xf4, 0xb8, 0x13, 0xb5, 0xe8, 0xfd,
  0xc4, 0x2f, 0xb1, 0xdb, 0xf0, 0xce, 0xc1, 0x21, 0x29, 0xff, 0xf7, 0x3b,
  0x0d, 0xed, 0x2d, 0xe2, 0x1d, 0x12, 0x02, 0x53, 0x36, 0x13, 0x3e, 0xe0,
  0x46, 0xee, 0x0e, 0xf1, 0x34, 0x32, 0x08, 0xb0, 0x0e, 0xff, 0x08, 0xc4,
  0xf4, 0xe0, 0x01, 0xf6, 0x62, 0xdb, 0x2f, 0x06, 0x30, 0x06, 0xd7, 0x23,
  0x22, 0xdd, 0x23, 0x2f, 0x5c, 0xf5, 0x1d, 0x13, 0x9f, 0x36, 0xb0, 0xbb,
  0xe2, 0x4c, 0x91, 0x41, 0x81, 0x23, 0xba, 0x0e, 0xce, 0x16, 0x84, 0x3c,
  0xbb, 0x4e, 0xff, 0x00, 0x2b, 0xbe, 0x91, 0x4d, 0x1a, 0xfc, 0xff, 0xff,
  0x04, 0x00, 0x00, 0x00, 0x04, 0x00, 0x00, 0x00, 0xb0, 0xb2, 0x58, 0xbe,
  0x2a, 0xfc, 0xff, 0xff, 0x04, 0x00, 0x00, 0x00, 0x40, 0x00, 0x00, 0x00,
  0x6b, 0x3b, 0x07, 0x3e, 0x17, 0x25, 0x9d, 0x3e, 0xf2, 0xc4, 0xe3, 0x3c,
  0x02, 0x3b, 0xfc, 0x3d, 0x64, 0xce, 0x4b, 0x3e, 0xcc, 0x3f, 0xc3, 0xbc,
  0x49, 0x95, 0x43, 0x3e, 0x60, 0x58, 0xee, 0x3d, 0xc9, 0xf3, 0xe4, 0x3b,
  0x6c, 0x9d, 0xe8, 0xbd, 0x92, 0x0c, 0xa8, 0x3c, 0xce, 0x9a, 0x68, 0x3d,
  0x5a, 0x45, 0xfd, 0x3b, 0xf7, 0x06, 0x2f, 0xbe, 0xf3, 0xc7, 0x13, 0xbe,
  0x5b, 0xc1, 0xc5, 0xbd, 0x76, 0xfc, 0xff, 0xff, 0x04, 0x00, 0x00, 0x00,
  0x40, 0x00, 0x00, 0x00, 0x97, 0xd3, 0x03, 0xbe, 0xca, 0x30, 0xf1, 0xbc,
  0x84, 0x71, 0xf5, 0xbd, 0xf3, 0xfe, 0x95, 0x3d, 0x46, 0x3c, 0x26, 0x3a,
  0x56, 0x63, 0xa0, 0xbd, 0x12, 0xf9, 0x04, 0xbe, 0xa3, 0x13, 0xc4, 0x3e,
  0x7b, 0x4d, 0x6e, 0x3e, 0xc7, 0x9b, 0xd1, 0xbd, 0x88, 0x42, 0x18, 0xbd,
  0x1a, 0xb3, 0x6c, 0x3e, 0x4a, 0xba, 0xdd, 0xbc, 0x0e, 0xd5, 0xb2, 0x3c,
  0x46, 0x71, 0x67, 0x3e, 0xdb, 0xdf, 0x83, 0x3e, 0xc2, 0xfc, 0xff, 0xff,
  0x04, 0x00, 0x00, 0x00, 0x40, 0x00, 0x00, 0x00, 0xd3, 0x14, 0x49, 0x3f,
  0x35, 0x8f, 0xe5, 0x3e, 0x80, 0xa5, 0x3d, 0x3f, 0x9c, 0x04, 0x07, 0x40,
  0xa5, 0x40, 0x87, 0x3e, 0xaa, 0xeb, 0xc8, 0x3f, 0x23, 0x92, 0x71, 0x3f,
  0x6a, 0x7d, 0xcb, 0xbf, 0x34, 0x8a, 0xfc, 0xbe, 0xc6, 0xc6, 0x67, 0x3f,
  0xfe, 0x7c, 0x3d, 0x3e, 0xf7, 0xe4, 0x3e, 0xbf, 0x6d, 0x86, 0xdc, 0xbd,
  0x5c, 0x67, 0xed, 0x3f, 0x2f, 0x49, 0x03, 0xbf, 0x90, 0x72, 0xbc, 0xbe,
  0x0e, 0xfd, 0xff, 0xff, 0x04, 0x00, 0x00, 0x00, 0x04, 0x00, 0x00, 0x00,
  0x00, 0x01, 0x00, 0x00, 0x1e, 0xfd, 0xff, 0xff, 0x04, 0x00, 0x00, 0x00,
  0x04, 0x00, 0x00, 0x00, 0x00, 0x00, 0x00, 0x00, 0x2e, 0xfd, 0xff, 0xff,
  0x04, 0x00, 0x00, 0x00, 0x04, 0x00, 0x00, 0x00, 0x01, 0x00, 0x00, 0x00,
  0x3e, 0xfd, 0xff, 0xff, 0x04, 0x00, 0x00, 0x00, 0x20, 0x01, 0x00, 0x00,
  0x5a, 0x48, 0xdc, 0xbe, 0xc5, 0xd0, 0x9e, 0xbd, 0x57, 0xf8, 0x65, 0x3c,
  0x4d, 0x2a, 0x81, 0x3d, 0xe9, 0x99, 0x0e, 0xbe, 0xd7, 0x1b, 0x8c, 0x3d,
  0xdc, 0x5c, 0x33, 0x3d, 0x04, 0x53, 0xec, 0xbe, 0x4c, 0xbf, 0x10, 0xbc,
  0xdb, 0x6e, 0x7e, 0xbe, 0x73, 0x0c, 0xda, 0xbe, 0x4e, 0xd7, 0x00, 0xbf,
  0xfd, 0x59, 0xbe, 0xbe, 0x8f, 0xdb, 0xb9, 0x3e, 0xf4, 0x81, 0x9d, 0x3e,
  0x00, 0x01, 0xb0, 0x3e, 0xf6, 0x7b, 0x97, 0x3c, 0x89, 0xf4, 0x92, 0x3e,
  0xbb, 0x01, 0x0e, 0xbf, 0x7f, 0xd8, 0x1e, 0x3e, 0xad, 0x2d, 0xd1, 0x3b,
  0xff, 0x7b, 0x92, 0xbe, 0xd2, 0x77, 0x0a, 0x3c, 0xd3, 0x3e, 0x9a, 0x3d,
  0x2c, 0x36, 0x21, 0xbe, 0x54, 0xdd, 0x9d, 0xbe, 0xb3, 0x05, 0xe3, 0x3d,
  0xcf, 0x99, 0xcd, 0xbc, 0xfe, 0xa2, 0xa9, 0xbe, 0x40, 0x01, 0x98, 0xbe,
  0xdf, 0x99, 0x07, 0xbf, 0x21, 0x06, 0xf8, 0xbb, 0xa3, 0x3a, 0x05, 0xbe,
  0x1f, 0xd8, 0x02, 0xbc, 0xc8, 0x86, 0x88, 0xbe, 0xe4, 0x41, 0x0d, 0x3e,
  0x91, 0x75, 0xe4, 0xbe, 0x5f, 0x61, 0xca, 0x3c, 0xac, 0x84, 0x03, 0x3f,
  0x6a, 0xab, 0x70, 0xbc, 0x17, 0x77, 0x86, 0xbe, 0xd5, 0xd2, 0x14, 0x3e,
  0x20, 0xd4, 0x6e, 0xbe, 0x9c, 0x85, 0x00, 0xbe, 0x06, 0x1a, 0xa0, 0x3e,
  0x34, 0x89, 0x00, 0xbe, 0xb9, 0x72, 0x4e, 0x3c, 0x79, 0x3b, 0x9b, 0xbe,
  0xd1, 0x78, 0x1d, 0x3f, 0x54, 0xc8, 0x69, 0xbe, 0xd1, 0x31, 0x29, 0xbf,
  0xe4, 0x30, 0xd3, 0x3e, 0x66, 0x32, 0x35, 0xbe, 0xa9, 0x46, 0x60, 0xbd,
  0x5d, 0xb3, 0x88, 0x3e, 0x52, 0xc0, 0xe0, 0x3b, 0xe9, 0xb0, 0x48, 0xbe,
  0x6f, 0x63, 0x09, 0xbf, 0x30, 0xec, 0xde, 0xbe, 0x5c, 0x56, 0xd0, 0x3d,
  0x26, 0x82, 0xca, 0xbe, 0xb3, 0x15, 0x6b, 0x3e, 0x37, 0xb7, 0x27, 0x3e,
  0xc6, 0x23, 0x0f, 0x3e, 0xb3, 0x5a, 0x56, 0xbe, 0xed, 0xaa, 0xb5, 0xbe,
  0xfc, 0x69, 0xaf, 0x3d, 0xa4, 0xc8, 0x22, 0x3d, 0x6f, 0x30, 0x9e, 0x3e,
  0x52, 0xb1, 0xea, 0x3e, 0xde, 0xbd, 0xb8, 0x3e, 0xed, 0x15, 0x6a, 0x3e,
  0x6a, 0xfe, 0xff, 0xff, 0x04, 0x00, 0x00, 0x00, 0x20, 0x00, 0x00, 0x00,
  0xe5, 0x38, 0xb1, 0x3e, 0x82, 0xb0, 0xdd, 0x3d, 0x2e, 0xee, 0x83, 0x3e,
  0x33, 0xb7, 0xaf, 0x3e, 0x6a, 0xd1, 0x19, 0x3d, 0xa3, 0x91, 0x42, 0x3e,
  0x69, 0x3a, 0x9a, 0x3e, 0xcd, 0x5c, 0x43, 0xbe, 0x5c, 0xf2, 0xff, 0xff,
  0x60, 0xf2, 0xff, 0xff, 0x0f, 0x00, 0x00, 0x00, 0x4d, 0x4c, 0x49, 0x52,
  0x20, 0x43, 0x6f, 0x6e, 0x76, 0x65, 0x72, 0x74, 0x65, 0x64, 0x2e, 0x00,
  0x01, 0x00, 0x00, 0x00, 0x14, 0x00, 0x00, 0x00, 0x00, 0x00, 0x0e, 0x00,
  0x18, 0x00, 0x14, 0x00, 0x10, 0x00, 0x0c, 0x00, 0x08, 0x00, 0x04, 0x00,
  0x0e, 0x00, 0x00, 0x00, 0x14, 0x00, 0x00, 0x00, 0x1c, 0x00, 0x00, 0x00,
  0x1c, 0x03, 0x00, 0x00, 0x20, 0x03, 0x00, 0x00, 0x24, 0x03, 0x00, 0x00,
  0x04, 0x00, 0x00, 0x00, 0x6d, 0x61, 0x69, 0x6e, 0x00, 0x00, 0x00, 0x00,
  0x0b, 0x00, 0x00, 0x00, 0xb4, 0x02, 0x00, 0x00, 0x50, 0x02, 0x00, 0x00,
  0xfc, 0x01, 0x00, 0x00, 0xb8, 0x01, 0x00, 0x00, 0x6c, 0x01, 0x00, 0x00,
  0x1c, 0x01, 0x00, 0x00, 0xdc, 0x00, 0x00, 0x00, 0xb4, 0x00, 0x00, 0x00,
  0x60, 0x00, 0x00, 0x00, 0x28, 0x00, 0x00, 0x00, 0x04, 0x00, 0x00, 0x00,
  0x66, 0xff, 0xff, 0xff, 0x0c, 0x00, 0x00, 0x00, 0x10, 0x00, 0x00, 0x00,
  0x07, 0x00, 0x00, 0x00, 0x01, 0x00, 0x00, 0x00, 0x16, 0x00, 0x00, 0x00,
  0x01, 0x00, 0x00, 0x00, 0x15, 0x00, 0x00, 0x00, 0x96, 0xfe, 0xff, 0xff,
  0x14, 0x00, 0x00, 0x00, 0x00, 0x00, 0x00, 0x08, 0x10, 0x00, 0x00, 0x00,
  0x14, 0x00, 0x00, 0x00, 0x06, 0x00, 0x00, 0x00, 0x1c, 0xf3, 0xff, 0xff,
  0x01, 0x00, 0x00, 0x00, 0x15, 0x00, 0x00, 0x00, 0x03, 0x00, 0x00, 0x00,
  0x14, 0x00, 0x00, 0x00, 0x06, 0x00, 0x00, 0x00, 0x09, 0x00, 0x00, 0x00,
  0xca, 0xfe, 0xff, 0xff, 0x20, 0x00, 0x00, 0x00, 0x00, 0x00, 0x00, 0x08,
  0x20, 0x00, 0x00, 0x00, 0x24, 0x00, 0x00, 0x00, 0x06, 0x00, 0x00, 0x00,
  0x0c, 0x00, 0x08, 0x00, 0x07, 0x00, 0x00, 0x00, 0x00, 0x00, 0x06, 0x00,
  0x0c, 0x00, 0x00, 0x00, 0x00, 0x00, 0x01, 0x01, 0x01, 0x00, 0x00, 0x00,
  0x14, 0x00, 0x00, 0x00, 0x03, 0x00, 0x00, 0x00, 0x13, 0x00, 0x00, 0x00,
  0x0b, 0x00, 0x00, 0x00, 0x07, 0x00, 0x00, 0x00, 0x00, 0x00, 0x0a, 0x00,
  0x10, 0x00, 0x0c, 0x00, 0x08, 0x00, 0x04, 0x00, 0x0a, 0x00, 0x00, 0x00,
  0x0c, 0x00, 0x00, 0x00, 0x10, 0x00, 0x00, 0x00, 0x05, 0x00, 0x00, 0x00,
  0x01, 0x00, 0x00, 0x00, 0x13, 0x00, 0x00, 0x00, 0x02, 0x00, 0x00, 0x00,
  0x0f, 0x00, 0x00, 0x00, 0x12, 0x00, 0x00, 0x00, 0xae, 0xfe, 0xff, 0xff,
  0x1c, 0x00, 0x00, 0x00, 0x00, 0x00, 0x00, 0x3b, 0x1c, 0x00, 0x00, 0x00,
  0x20, 0x00, 0x00, 0x00, 0x04, 0x00, 0x00, 0x00, 0x00, 0x00, 0x06, 0x00,
  0x08, 0x00, 0x04, 0x00, 0x06, 0x00, 0x00, 0x00, 0x02, 0x00, 0x00, 0x00,
  0x01, 0x00, 0x00, 0x00, 0x12, 0x00, 0x00, 0x00, 0x02, 0x00, 0x00, 0x00,
  0x11, 0x00, 0x00, 0x00, 0x05, 0x00, 0x00, 0x00, 0xea, 0xfe, 0xff, 0xff,
  0x24, 0x00, 0x00, 0x00, 0x00, 0x00, 0x00, 0x20, 0x24, 0x00, 0x00, 0x00,
  0x28, 0x00, 0x00, 0x00, 0x03, 0x00, 0x00, 0x00, 0x00, 0x00, 0x0e, 0x00,
  0x08, 0x00, 0x00, 0x00, 0x00, 0x00, 0x00, 0x00, 0x00, 0x00, 0x04, 0x00,
  0x0e, 0x00, 0x00, 0x00, 0x01, 0x00, 0x00, 0x00, 0x01, 0x00, 0x00, 0x00,
  0x11, 0x00, 0x00, 0x00, 0x04, 0x00, 0x00, 0x00, 0x10, 0x00, 0x00, 0x00,
  0x04, 0x00, 0x00, 0x00, 0x03, 0x00, 0x00, 0x00, 0x03, 0x00, 0x00, 0x00,
  0x36, 0xff, 0xff, 0xff, 0x1c, 0x00, 0x00, 0x00, 0x00, 0x00, 0x00, 0x37,
  0x1c, 0x00, 0x00, 0x00, 0x20, 0x00, 0x00, 0x00, 0x02, 0x00, 0x00, 0x00,
  0x00, 0x00, 0x06, 0x00, 0x08, 0x00, 0x07, 0x00, 0x06, 0x00, 0x00, 0x00,
  0x00, 0x00, 0x00, 0x02, 0x01, 0x00, 0x00, 0x00, 0x10, 0x00, 0x00, 0x00,
  0x01, 0x00, 0x00, 0x00, 0x0f, 0x00, 0x00, 0x00, 0x00, 0x00, 0x0e, 0x00,
  0x18, 0x00, 0x14, 0x00, 0x10, 0x00, 0x0c, 0x00, 0x0b, 0x00, 0x04, 0x00,
  0x0e, 0x00, 0x00, 0x00, 0x14, 0x00, 0x00, 0x00, 0x00, 0x00, 0x00, 0x05,
  0x24, 0x00, 0x00, 0x00, 0x28, 0x00, 0x00, 0x00, 0x01, 0x00, 0x00, 0x00,
  0x6e, 0xff, 0xff, 0xff, 0x02, 0x00, 0x00, 0x00, 0x02, 0x00, 0x00, 0x00,
  0x02, 0x00, 0x00, 0x00, 0x02, 0x00, 0x00, 0x00, 0x00, 0x00, 0x00, 0x01,
  0x01, 0x00, 0x00, 0x00, 0x0f, 0x00, 0x00, 0x00, 0x01, 0x00, 0x00, 0x00,
  0x0e, 0x00, 0x00, 0x00, 0x5e, 0xff, 0xff, 0xff, 0x10, 0x00, 0x00, 0x00,
  0x00, 0x00, 0x00, 0x01, 0x1c, 0x00, 0x00, 0x00, 0x20, 0x00, 0x00, 0x00,
  0x50, 0xff, 0xff, 0xff, 0x00, 0x00, 0x00, 0x01, 0x01, 0x00, 0x00, 0x00,
  0x01, 0x00, 0x00, 0x00, 0x00, 0x00, 0x00, 0x01, 0x01, 0x00, 0x00, 0x00,
  0x0e, 0x00, 0x00, 0x00, 0x03, 0x00, 0x00, 0x00, 0x0d, 0x00, 0x00, 0x00,
  0x0a, 0x00, 0x00, 0x00, 0x08, 0x00, 0x00, 0x00, 0x00, 0x00, 0x0e, 0x00,
  0x1a, 0x00, 0x14, 0x00, 0x10, 0x00, 0x0c, 0x00, 0x0b, 0x00, 0x04, 0x00,
  0x0e, 0x00, 0x00, 0x00, 0x24, 0x00, 0x00, 0x00, 0x00, 0x00, 0x00, 0x05,
  0x34, 0x00, 0x00, 0x00, 0x38, 0x00, 0x00, 0x00, 0x01, 0x00, 0x00, 0x00,
  0x00, 0x00, 0x0e, 0x00, 0x18, 0x00, 0x17, 0x00, 0x10, 0x00, 0x0c, 0x00,
  0x08, 0x00, 0x04, 0x00, 0x0e, 0x00, 0x00, 0x00, 0x02, 0x00, 0x00, 0x00,
  0x02, 0x00, 0x00, 0x00, 0x02, 0x00, 0x00, 0x00, 0x02, 0x00, 0x00, 0x00,
  0x00, 0x00, 0x00, 0x01, 0x01, 0x00, 0x00, 0x00, 0x0d, 0x00, 0x00, 0x00,
  0x01, 0x00, 0x00, 0x00, 0x0c, 0x00, 0x00, 0x00, 0x00, 0x00, 0x0e, 0x00,
  0x14, 0x00, 0x00, 0x00, 0x10, 0x00, 0x0c, 0x00, 0x0b, 0x00, 0x04, 0x00,
  0x0e, 0x00, 0x00, 0x00, 0x1c, 0x00, 0x00, 0x00, 0x00, 0x00, 0x00, 0x01,
  0x28, 0x00, 0x00, 0x00, 0x2c, 0x00, 0x00, 0x00, 0x0c, 0x00, 0x14, 0x00,
  0x13, 0x00, 0x0c, 0x00, 0x08, 0x00, 0x07, 0x00, 0x0c, 0x00, 0x00, 0x00,
  0x00, 0x00, 0x00, 0x01, 0x01, 0x00, 0x00, 0x00, 0x01, 0x00, 0x00, 0x00,
  0x00, 0x00, 0x00, 0x01, 0x01, 0x00, 0x00, 0x00, 0x0c, 0x00, 0x00, 0x00,
  0x03, 0x00, 0x00, 0x00, 0x00, 0x00, 0x00, 0x00, 0x02, 0x00, 0x00, 0x00,
  0x01, 0x00, 0x00, 0x00, 0x01, 0x00, 0x00, 0x00, 0x16, 0x00, 0x00, 0x00,
  0x01, 0x00, 0x00, 0x00, 0x00, 0x00, 0x00, 0x00, 0x17, 0x00, 0x00, 0x00,
  0x04, 0x0a, 0x00, 0x00, 0xb0, 0x09, 0x00, 0x00, 0x50, 0x09, 0x00, 0x00,
  0x10, 0x09, 0x00, 0x00, 0xb8, 0x08, 0x00, 0x00, 0x7c, 0x08, 0x00, 0x00,
  0x3c, 0x08, 0x00, 0x00, 0x00, 0x08, 0x00, 0x00, 0xc4, 0x07, 0x00, 0x00,
  0x88, 0x07, 0x00, 0x00, 0x58, 0x06, 0x00, 0x00, 0x40, 0x05, 0x00, 0x00,
  0x94, 0x04, 0x00, 0x00, 0x1c, 0x04, 0x00, 0x00, 0x48, 0x03, 0x00, 0x00,
  0xcc, 0x02, 0x00, 0x00, 0x7c, 0x02, 0x00, 0x00, 0x28, 0x02, 0x00, 0x00,
  0xd0, 0x01, 0x00, 0x00, 0x70, 0x01, 0x00, 0x00, 0xdc, 0x00, 0x00, 0x00,
  0x60, 0x00, 0x00, 0x00, 0x04, 0x00, 0x00, 0x00, 0x6e, 0xf6, 0xff, 0xff,
  0x00, 0x00, 0x00, 0x01, 0x14, 0x00, 0x00, 0x00, 0x1c, 0x00, 0x00, 0x00,
  0x1c, 0x00, 0x00, 0x00, 0x17, 0x00, 0x00, 0x00, 0x34, 0x00, 0x00, 0x00,
  0x02, 0x00, 0x00, 0x00, 0xff, 0xff, 0xff, 0xff, 0x01, 0x00, 0x00, 0x00,
  0x50, 0xf6, 0xff, 0xff, 0x1b, 0x00, 0x00, 0x00, 0x53, 0x74, 0x61, 0x74,
  0x65, 0x66, 0x75, 0x6c, 0x50, 0x61, 0x72, 0x74, 0x69, 0x74, 0x69, 0x6f,
  0x6e, 0x65, 0x64, 0x43, 0x61, 0x6c, 0x6c, 0x5f, 0x31, 0x3a, 0x30, 0x00,
  0x02, 0x00, 0x00, 0x00, 0x01, 0x00, 0x00, 0x00, 0x01, 0x00, 0x00, 0x00,
  0xc6, 0xf6, 0xff, 0xff, 0x00, 0x00, 0x00, 0x01, 0x14, 0x00, 0x00, 0x00,
  0x1c, 0x00, 0x00, 0x00, 0x1c, 0x00, 0x00, 0x00, 0x16, 0x00, 0x00, 0x00,
  0x54, 0x00, 0x00, 0x00, 0x02, 0x00, 0x00, 0x00, 0xff, 0xff, 0xff, 0xff,
  0x01, 0x00, 0x00, 0x00, 0xa8, 0xf6, 0xff, 0xff, 0x38, 0x00, 0x00, 0x00,
  0x73, 0x65, 0x71, 0x75, 0x65, 0x6e, 0x74, 0x69, 0x61, 0x6c, 0x5f, 0x31,
  0x2f, 0x64, 0x65, 0x6e, 0x73, 0x65, 0x5f, 0x31, 0x5f, 0x32, 0x2f, 0x4d,
  0x61, 0x74, 0x4d, 0x75, 0x6c, 0x3b, 0x73, 0x65, 0x71, 0x75, 0x65, 0x6e,
  0x74, 0x69, 0x61, 0x6c, 0x5f, 0x31, 0x2f, 0x64, 0x65, 0x6e, 0x73, 0x65,
  0x5f, 0x31, 0x5f, 0x32, 0x2f, 0x41, 0x64, 0x64, 0x00, 0x00, 0x00, 0x00,
  0x02, 0x00, 0x00, 0x00, 0x01, 0x00, 0x00, 0x00, 0x01, 0x00, 0x00, 0x00,
  0x3e, 0xf7, 0xff, 0xff, 0x00, 0x00, 0x00, 0x01, 0x14, 0x00, 0x00, 0x00,
  0x1c, 0x00, 0x00, 0x00, 0x1c, 0x00, 0x00, 0x00, 0x15, 0x00, 0x00, 0x00,
  0x6c, 0x00, 0x00, 0x00, 0x02, 0x00, 0x00, 0x00, 0xff, 0xff, 0xff, 0xff,
  0x10, 0x00, 0x00, 0x00, 0x20, 0xf7, 0xff, 0xff, 0x52, 0x00, 0x00, 0x00,
  0x73, 0x65, 0x71, 0x75, 0x65, 0x6e, 0x74, 0x69, 0x61, 0x6c, 0x5f, 0x31,
  0x2f, 0x64, 0x65, 0x6e, 0x73, 0x65, 0x5f, 0x31, 0x2f, 0x4d, 0x61, 0x74,
  0x4d, 0x75, 0x6c, 0x3b, 0x73, 0x65, 0x71, 0x75, 0x65, 0x6e, 0x74, 0x69,
  0x61, 0x6c, 0x5f, 0x31, 0x2f, 0x64, 0x65, 0x6e, 0x73, 0x65, 0x5f, 0x31,
  0x2f, 0x52, 0x65, 0x6c, 0x75, 0x3b, 0x73, 0x65, 0x71, 0x75, 0x65, 0x6e,
  0x74, 0x69, 0x61, 0x6c, 0x5f, 0x31, 0x2f, 0x64, 0x65, 0x6e, 0x73, 0x65,
  0x5f, 0x31, 0x2f, 0x42, 0x69, 0x61, 0x73, 0x41, 0x64, 0x64, 0x00, 0x00,
  0x02, 0x00, 0x00, 0x00, 0x01, 0x00, 0x00, 0x00, 0x10, 0x00, 0x00, 0x00,
  0xce, 0xf7, 0xff, 0xff, 0x00, 0x00, 0x00, 0x01, 0x14, 0x00, 0x00, 0x00,
  0x1c, 0x00, 0x00, 0x00, 0x1c, 0x00, 0x00, 0x00, 0x14, 0x00, 0x00, 0x00,
  0x38, 0x00, 0x00, 0x00, 0x02, 0x00, 0x00, 0x00, 0xff, 0xff, 0xff, 0xff,
  0x00, 0x01, 0x00, 0x00, 0xb0, 0xf7, 0xff, 0xff, 0x1e, 0x00, 0x00, 0x00,
  0x73, 0x65, 0x71, 0x75, 0x65, 0x6e, 0x74, 0x69, 0x61, 0x6c, 0x5f, 0x31,
  0x2f, 0x66, 0x6c, 0x61, 0x74, 0x74, 0x65, 0x6e, 0x5f, 0x31, 0x2f, 0x52,
  0x65, 0x73, 0x68, 0x61, 0x70, 0x65, 0x00, 0x00, 0x02, 0x00, 0x00, 0x00,
  0x01, 0x00, 0x00, 0x00, 0x00, 0x01, 0x00, 0x00, 0x12, 0xf9, 0xff, 0xff,
  0x00, 0x00, 0x00, 0x01, 0x14, 0x00, 0x00, 0x00, 0x14, 0x00, 0x00, 0x00,
  0x13, 0x00, 0x00, 0x00, 0x00, 0x00, 0x00, 0x02, 0x34, 0x00, 0x00, 0x00,
  0x00, 0xf8, 0xff, 0xff, 0x24, 0x00, 0x00, 0x00, 0x73, 0x65, 0x71, 0x75,
  0x65, 0x6e, 0x74, 0x69, 0x61, 0x6c, 0x5f, 0x31, 0x2f, 0x66, 0x6c, 0x61,
  0x74, 0x74, 0x65, 0x6e, 0x5f, 0x31, 0x2f, 0x52, 0x65, 0x73, 0x68, 0x61,
  0x70, 0x65, 0x2f, 0x73, 0x68, 0x61, 0x70, 0x65, 0x00, 0x00, 0x00, 0x00,
  0x01, 0x00, 0x00, 0x00, 0x02, 0x00, 0x00, 0x00, 0x66, 0xf9, 0xff, 0xff,
  0x00, 0x00, 0x00, 0x01, 0x14, 0x00, 0x00, 0x00, 0x14, 0x00, 0x00, 0x00,
  0x12, 0x00, 0x00, 0x00, 0x00, 0x00, 0x00, 0x02, 0x34, 0x00, 0x00, 0x00,
  0x54, 0xf8, 0xff, 0xff, 0x24, 0x00, 0x00, 0x00, 0x73, 0x65, 0x71, 0x75,
  0x65, 0x6e, 0x74, 0x69, 0x61, 0x6c, 0x5f, 0x31, 0x2f, 0x66, 0x6c, 0x61,
  0x74, 0x74, 0x65, 0x6e, 0x5f, 0x31, 0x2f, 0x73, 0x74, 0x72, 0x69, 0x64,
  0x65, 0x64, 0x5f, 0x73, 0x6c, 0x69, 0x63, 0x65, 0x00, 0x00, 0x00, 0x00,
  0x00, 0x00, 0x00, 0x00, 0xb6, 0xf9, 0xff, 0xff, 0x00, 0x00, 0x00, 0x01,
  0x14, 0x00, 0x00, 0x00, 0x14, 0x00, 0x00, 0x00, 0x11, 0x00, 0x00, 0x00,
  0x00, 0x00, 0x00, 0x02, 0x2c, 0x00, 0x00, 0x00, 0xa4, 0xf8, 0xff, 0xff,
  0x1c, 0x00, 0x00, 0x00, 0x73, 0x65, 0x71, 0x75, 0x65, 0x6e, 0x74, 0x69,
  0x61, 0x6c, 0x5f, 0x31, 0x2f, 0x66, 0x6c, 0x61, 0x74, 0x74, 0x65, 0x6e,
  0x5f, 0x31, 0x2f, 0x53, 0x68, 0x61, 0x70, 0x65, 0x00, 0x00, 0x00, 0x00,
  0x01, 0x00, 0x00, 0x00, 0x04, 0x00, 0x00, 0x00, 0x1a, 0xf9, 0xff, 0xff,
  0x00, 0x00, 0x00, 0x01, 0x14, 0x00, 0x00, 0x00, 0x24, 0x00, 0x00, 0x00,
  0x24, 0x00, 0x00, 0x00, 0x10, 0x00, 0x00, 0x00, 0x4c, 0x00, 0x00, 0x00,
  0x04, 0x00, 0x00, 0x00, 0xff, 0xff, 0xff, 0xff, 0x04, 0x00, 0x00, 0x00,
  0x04, 0x00, 0x00, 0x00, 0x10, 0x00, 0x00, 0x00, 0x04, 0xf9, 0xff, 0xff,
  0x28, 0x00, 0x00, 0x00, 0x73, 0x65, 0x71, 0x75, 0x65, 0x6e, 0x74, 0x69,
  0x61, 0x6c, 0x5f, 0x31, 0x2f, 0x6d, 0x61, 0x78, 0x5f, 0x70, 0x6f, 0x6f,
  0x6c, 0x69, 0x6e, 0x67, 0x32, 0x64, 0x5f, 0x31, 0x5f, 0x32, 0x2f, 0x4d,
  0x61, 0x78, 0x50, 0x6f, 0x6f, 0x6c, 0x32, 0x64, 0x00, 0x00, 0x00, 0x00,
  0x04, 0x00, 0x00, 0x00, 0x01, 0x00, 0x00, 0x00, 0x04, 0x00, 0x00, 0x00,
  0x04, 0x00, 0x00, 0x00, 0x10, 0x00, 0x00, 0x00, 0x92, 0xf9, 0xff, 0xff,
  0x00, 0x00, 0x00, 0x01, 0x14, 0x00, 0x00, 0x00, 0x24, 0x00, 0x00, 0x00,
  0x24, 0x00, 0x00, 0x00, 0x0f, 0x00, 0x00, 0x00, 0xa4, 0x00, 0x00, 0x00,
  0x04, 0x00, 0x00, 0x00, 0xff, 0xff, 0xff, 0xff, 0x09, 0x00, 0x00, 0x00,
  0x09, 0x00, 0x00, 0x00, 0x10, 0x00, 0x00, 0x00, 0x7c, 0xf9, 0xff, 0xff,
  0x80, 0x00, 0x00, 0x00, 0x73, 0x65, 0x71, 0x75, 0x65, 0x6e, 0x74, 0x69,
  0x61, 0x6c, 0x5f, 0x31, 0x2f, 0x63, 0x6f, 0x6e, 0x76, 0x32, 0x64, 0x5f,
  0x31, 0x5f, 0x32, 0x2f, 0x52, 0x65, 0x6c, 0x75, 0x3b, 0x73, 0x65, 0x71,
  0x75, 0x65, 0x6e, 0x74, 0x69, 0x61, 0x6c, 0x5f, 0x31, 0x2f, 0x63, 0x6f,
  0x6e, 0x76, 0x32, 0x64, 0x5f, 0x31, 0x5f, 0x32, 0x2f, 0x42, 0x69, 0x61,
  0x73, 0x41, 0x64, 0x64, 0x3b, 0x73, 0x65, 0x71, 0x75, 0x65, 0x6e, 0x74,
  0x69, 0x61, 0x6c, 0x5f, 0x31, 0x2f, 0x63, 0x6f, 0x6e, 0x76, 0x32, 0x64,
  0x5f, 0x31, 0x5f, 0x32, 0x2f, 0x63, 0x6f, 0x6e, 0x76, 0x6f, 0x6c, 0x75,
  0x74, 0x69, 0x6f, 0x6e, 0x3b, 0x73, 0x65, 0x71, 0x75, 0x65, 0x6e, 0x74,
  0x69, 0x61, 0x6c, 0x5f, 0x31, 0x2f, 0x63, 0x6f, 0x6e, 0x76, 0x32, 0x64,
  0x5f, 0x31, 0x5f, 0x32, 0x2f, 0x53, 0x71, 0x75, 0x65, 0x65, 0x7a, 0x65,
  0x00, 0x00, 0x00, 0x00, 0x04, 0x00, 0x00, 0x00, 0x01, 0x00, 0x00, 0x00,
  0x09, 0x00, 0x00, 0x00, 0x09, 0x00, 0x00, 0x00, 0x10, 0x00, 0x00, 0x00,
  0x62, 0xfa, 0xff, 0xff, 0x00, 0x00, 0x00, 0x01, 0x14, 0x00, 0x00, 0x00,
  0x24, 0x00, 0x00, 0x00, 0x24, 0x00, 0x00, 0x00, 0x0e, 0x00, 0x00, 0x00,
  0x48, 0x00, 0x00, 0x00, 0x04, 0x00, 0x00, 0x00, 0xff, 0xff, 0xff, 0xff,
  0x0b, 0x00, 0x00, 0x00, 0x0b, 0x00, 0x00, 0x00, 0x08, 0x00, 0x00, 0x00,
  0x4c, 0xfa, 0xff, 0xff, 0x26, 0x00, 0x00, 0x00, 0x73, 0x65, 0x71, 0x75,
  0x65, 0x6e, 0x74, 0x69, 0x61, 0x6c, 0x5f, 0x31, 0x2f, 0x6d, 0x61, 0x78,
  0x5f, 0x70, 0x6f, 0x6f, 0x6c, 0x69, 0x6e, 0x67, 0x32, 0x64, 0x5f, 0x31,
  0x2f, 0x4d, 0x61, 0x78, 0x50, 0x6f, 0x6f, 0x6c, 0x32, 0x64, 0x00, 0x00,
  0x04, 0x00, 0x00, 0x00, 0x01, 0x00, 0x00, 0x00, 0x0b, 0x00, 0x00, 0x00,
  0x0b, 0x00, 0x00, 0x00, 0x08, 0x00, 0x00, 0x00, 0xd6, 0xfa, 0xff, 0xff,
  0x00, 0x00, 0x00, 0x01, 0x14, 0x00, 0x00, 0x00, 0x24, 0x00, 0x00, 0x00,
  0x24, 0x00, 0x00, 0x00, 0x0d, 0x00, 0x00, 0x00, 0x7c, 0x00, 0x00, 0x00,
  0x04, 0x00, 0x00, 0x00, 0xff, 0xff, 0xff, 0xff, 0x16, 0x00, 0x00, 0x00,
  0x16, 0x00, 0x00, 0x00, 0x08, 0x00, 0x00, 0x00, 0xc0, 0xfa, 0xff, 0xff,
  0x5b, 0x00, 0x00, 0x00, 0x73, 0x65, 0x71, 0x75, 0x65, 0x6e, 0x74, 0x69,
  0x61, 0x6c, 0x5f, 0x31, 0x2f, 0x63, 0x6f, 0x6e, 0x76, 0x32, 0x64, 0x5f,
  0x31, 0x2f, 0x52, 0x65, 0x6c, 0x75, 0x3b, 0x73, 0x65, 0x71, 0x75, 0x65,
  0x6e, 0x74, 0x69, 0x61, 0x6c, 0x5f, 0x31, 0x2f, 0x63, 0x6f, 0x6e, 0x76,
  0x32, 0x64, 0x5f, 0x31, 0x2f, 0x42, 0x69, 0x61, 0x73, 0x41, 0x64, 0x64,
  0x3b, 0x73, 0x65, 0x71, 0x75, 0x65, 0x6e, 0x74, 0x69, 0x61, 0x6c, 0x5f,
  0x31, 0x2f, 0x63, 0x6f, 0x6e, 0x76, 0x32, 0x64, 0x5f, 0x31, 0x2f, 0x63,
  0x6f, 0x6e, 0x76, 0x6f, 0x6c, 0x75, 0x74, 0x69, 0x6f, 0x6e, 0x3b, 0x00,
  0x04, 0x00, 0x00, 0x00, 0x01, 0x00, 0x00, 0x00, 0x16, 0x00, 0x00, 0x00,
  0x16, 0x00, 0x00, 0x00, 0x08, 0x00, 0x00, 0x00, 0x66, 0xfc, 0xff, 0xff,
  0x00, 0x00, 0x00, 0x01, 0x14, 0x00, 0x00, 0x00, 0xe4, 0x00, 0x00, 0x00,
  0x0c, 0x00, 0x00, 0x00, 0x00, 0x00, 0x00, 0x09, 0xf0, 0x00, 0x00, 0x00,
  0xec, 0xfe, 0xff, 0xff, 0x08, 0x00, 0x00, 0x00, 0x88, 0x00, 0x00, 0x00,
  0x10, 0x00, 0x00, 0x00, 0x00, 0x00, 0x00, 0x00, 0x00, 0x00, 0x00, 0x00,
  0x00, 0x00, 0x00, 0x00, 0x00, 0x00, 0x00, 0x00, 0x00, 0x00, 0x00, 0x00,
  0x00, 0x00, 0x00, 0x00, 0x00, 0x00, 0x00, 0x00, 0x00, 0x00, 0x00, 0x00,
  0x00, 0x00, 0x00, 0x00, 0x00, 0x00, 0x00, 0x00, 0x00, 0x00, 0x00, 0x00,
  0x00, 0x00, 0x00, 0x00, 0x00, 0x00, 0x00, 0x00, 0x00, 0x00, 0x00, 0x00,
  0x00, 0x00, 0x00, 0x00, 0x00, 0x00, 0x00, 0x00, 0x00, 0x00, 0x00, 0x00,
  0x00, 0x00, 0x00, 0x00, 0x00, 0x00, 0x00, 0x00, 0x00, 0x00, 0x00, 0x00,
  0x00, 0x00, 0x00, 0x00, 0x00, 0x00, 0x00, 0x00, 0x00, 0x00, 0x00, 0x00,
  0x00, 0x00, 0x00, 0x00, 0x00, 0x00, 0x00, 0x00, 0x00, 0x00, 0x00, 0x00,
  0x00, 0x00, 0x00, 0x00, 0x00, 0x00, 0x00, 0x00, 0x00, 0x00, 0x00, 0x00,
  0x00, 0x00, 0x00, 0x00, 0x00, 0x00, 0x00, 0x00, 0x00, 0x00, 0x00, 0x00,
  0x10, 0x00, 0x00, 0x00, 0x04, 0x7e, 0xd4, 0x3b, 0xfb, 0x55, 0xb8, 0x3a,
  0x4c, 0xf0, 0xbe, 0x3b, 0x00, 0x3e, 0x10, 0x3c, 0xae, 0x23, 0xa7, 0x3a,
  0xed, 0xac, 0x0e, 0x3c, 0x39, 0xb2, 0xd6, 0x3b, 0xc3, 0x37, 0xc2, 0x3b,
  0x17, 0x56, 0xcf, 0x3b, 0xb6, 0x08, 0xcc, 0x3b, 0xb3, 0x3c, 0xba, 0x3a,
  0x18, 0x0f, 0xb4, 0x3b, 0x92, 0xe4, 0xb6, 0x3a, 0x6e, 0xc2, 0x04, 0x3c,
  0xe8, 0xc3, 0xf8, 0x3b, 0xf0, 0xb2, 0xc7, 0x3b, 0x12, 0x00, 0x00, 0x00,
  0x74, 0x66, 0x6c, 0x2e, 0x70, 0x73, 0x65, 0x75, 0x64, 0x6f, 0x5f, 0x71,
  0x63, 0x6f, 0x6e, 0x73, 0x74, 0x31, 0x00, 0x00, 0x02, 0x00, 0x00, 0x00,
  0x10, 0x00, 0x00, 0x00, 0x00, 0x01, 0x00, 0x00, 0x7a, 0xfd, 0xff, 0xff,
  0x00, 0x00, 0x00, 0x01, 0x20, 0x00, 0x00, 0x00, 0xf4, 0x00, 0x00, 0x00,
  0x0b, 0x00, 0x00, 0x00, 0x00, 0x00, 0x00, 0x09, 0x00, 0x01, 0x00, 0x00,
  0x0c, 0x00, 0x0c, 0x00, 0x00, 0x00, 0x00, 0x00, 0x08, 0x00, 0x04, 0x00,
  0x0c, 0x00, 0x00, 0x00, 0x08, 0x00, 0x00, 0x00, 0x8c, 0x00, 0x00, 0x00,
  0x10, 0x00, 0x00, 0x00, 0x00, 0x00, 0x00, 0x00, 0x00, 0x00, 0x00, 0x00,
  0x00, 0x00, 0x00, 0x00, 0x00, 0x00, 0x00, 0x00, 0x00, 0x00, 0x00, 0x00,
  0x00, 0x00, 0x00, 0x00, 0x00, 0x00, 0x00, 0x00, 0x00, 0x00, 0x00, 0x00,
  0x00, 0x00, 0x00, 0x00, 0x00, 0x00, 0x00, 0x00, 0x00, 0x00, 0x00, 0x00,
  0x00, 0x00, 0x00, 0x00, 0x00, 0x00, 0x00, 0x00, 0x00, 0x00, 0x00, 0x00,
  0x00, 0x00, 0x00, 0x00, 0x00, 0x00, 0x00, 0x00, 0x00, 0x00, 0x00, 0x00,
  0x00, 0x00, 0x00, 0x00, 0x00, 0x00, 0x00, 0x00, 0x00, 0x00, 0x00, 0x00,
  0x00, 0x00, 0x00, 0x00, 0x00, 0x00, 0x00, 0x00, 0x00, 0x00, 0x00, 0x00,
  0x00, 0x00, 0x00, 0x00, 0x00, 0x00, 0x00, 0x00, 0x00, 0x00, 0x00, 0x00,
  0x00, 0x00, 0x00, 0x00, 0x00, 0x00, 0x00, 0x00, 0x00, 0x00, 0x00, 0x00,
  0x00, 0x00, 0x00, 0x00, 0x00, 0x00, 0x00, 0x00, 0x00, 0x00, 0x00, 0x00,
  0x00, 0x00, 0x00, 0x00, 0x10, 0x00, 0x00, 0x00, 0xff, 0x78, 0xb1, 0x3b,
  0x0f, 0x15, 0x55, 0x3c, 0x4e, 0x13, 0xdf, 0x3b, 0x60, 0x75, 0x09, 0x3c,
  0x01, 0x9f, 0x50, 0x3c, 0x39, 0x17, 0xb8, 0x3a, 0x11, 0x3d, 0x1e, 0x3c,
  0x50, 0xf8, 0x01, 0x3c, 0xa3, 0x42, 0x07, 0x3c, 0xcd, 0x36, 0x16, 0x3c,
  0x65, 0x87, 0xc9, 0x3b, 0x93, 0x9c, 0x20, 0x3c, 0xf8, 0x4d, 0x05, 0x3c,
  0xf6, 0x5a, 0xad, 0x3b, 0x6c, 0x28, 0xcd, 0x3b, 0x49, 0xa3, 0x9d, 0x3b,
  0x11, 0x00, 0x00, 0x00, 0x74, 0x66, 0x6c, 0x2e, 0x70, 0x73, 0x65, 0x75,
  0x64, 0x6f, 0x5f, 0x71, 0x63, 0x6f, 0x6e, 0x73, 0x74, 0x00, 0x00, 0x00,
  0x04, 0x00, 0x00, 0x00, 0x10, 0x00, 0x00, 0x00, 0x03, 0x00, 0x00, 0x00,
  0x03, 0x00, 0x00, 0x00, 0x08, 0x00, 0x00, 0x00, 0x0e, 0xfe, 0xff, 0xff,
  0x00, 0x00, 0x00, 0x01, 0x10, 0x00, 0x00, 0x00, 0x10, 0x00, 0x00, 0x00,
  0x0a, 0x00, 0x00, 0x00, 0x1c, 0x00, 0x00, 0x00, 0x90, 0xfd, 0xff, 0xff,
  0x0f, 0x00, 0x00, 0x00, 0x61, 0x72, 0x69, 0x74, 0x68, 0x2e, 0x63, 0x6f,
  0x6e, 0x73, 0x74, 0x61, 0x6e, 0x74, 0x38, 0x00, 0x01, 0x00, 0x00, 0x00,
  0x01, 0x00, 0x00, 0x00, 0x46, 0xfe, 0xff, 0xff, 0x00, 0x00, 0x00, 0x01,
  0x10, 0x00, 0x00, 0x00, 0x10, 0x00, 0x00, 0x00, 0x09, 0x00, 0x00, 0x00,
  0x1c, 0x00, 0x00, 0x00, 0xc8, 0xfd, 0xff, 0xff, 0x0f, 0x00, 0x00, 0x00,
  0x61, 0x72, 0x69, 0x74, 0x68, 0x2e, 0x63, 0x6f, 0x6e, 0x73, 0x74, 0x61,
  0x6e, 0x74, 0x37, 0x00, 0x01, 0x00, 0x00, 0x00, 0x10, 0x00, 0x00, 0x00,
  0x7e, 0xfe, 0xff, 0xff, 0x00, 0x00, 0x00, 0x01, 0x10, 0x00, 0x00, 0x00,
  0x10, 0x00, 0x00, 0x00, 0x08, 0x00, 0x00, 0x00, 0x1c, 0x00, 0x00, 0x00,
  0x00, 0xfe, 0xff, 0xff, 0x0f, 0x00, 0x00, 0x00, 0x61, 0x72, 0x69, 0x74,
  0x68, 0x2e, 0x63, 0x6f, 0x6e, 0x73, 0x74, 0x61, 0x6e, 0x74, 0x36, 0x00,
  0x01, 0x00, 0x00, 0x00, 0x10, 0x00, 0x00, 0x00, 0xb6, 0xfe, 0xff, 0xff,
  0x00, 0x00, 0x00, 0x01, 0x10, 0x00, 0x00, 0x00, 0x10, 0x00, 0x00, 0x00,
  0x07, 0x00, 0x00, 0x00, 0x1c, 0x00, 0x00, 0x00, 0x38, 0xfe, 0xff, 0xff,
  0x0f, 0x00, 0x00, 0x00, 0x61, 0x72, 0x69, 0x74, 0x68, 0x2e, 0x63, 0x6f,
  0x6e, 0x73, 0x74, 0x61, 0x6e, 0x74, 0x35, 0x00, 0x02, 0x00, 0x00, 0x00,
  0x01, 0x00, 0x00, 0x00, 0x10, 0x00, 0x00, 0x00, 0x8a, 0xff, 0xff, 0xff,
  0x00, 0x00, 0x00, 0x01, 0x14, 0x00, 0x00, 0x00, 0x14, 0x00, 0x00, 0x00,
  0x06, 0x00, 0x00, 0x00, 0x00, 0x00, 0x00, 0x02, 0x1c, 0x00, 0x00, 0x00,
  0x78, 0xfe, 0xff, 0xff, 0x0f, 0x00, 0x00, 0x00, 0x61, 0x72, 0x69, 0x74,
  0x68, 0x2e, 0x63, 0x6f, 0x6e, 0x73, 0x74, 0x61, 0x6e, 0x74, 0x34, 0x00,
  0x00, 0x00, 0x00, 0x00, 0xc2, 0xff, 0xff, 0xff, 0x00, 0x00, 0x00, 0x01,
  0x14, 0x00, 0x00, 0x00, 0x14, 0x00, 0x00, 0x00, 0x05, 0x00, 0x00, 0x00,
  0x00, 0x00, 0x00, 0x02, 0x1c, 0x00, 0x00, 0x00, 0xb0, 0xfe, 0xff, 0xff,
  0x0f, 0x00, 0x00, 0x00, 0x61, 0x72, 0x69, 0x74, 0x68, 0x2e, 0x63, 0x6f,
  0x6e, 0x73, 0x74, 0x61, 0x6e, 0x74, 0x33, 0x00, 0x01, 0x00, 0x00, 0x00,
  0x01, 0x00, 0x00, 0x00, 0x00, 0x00, 0x16, 0x00, 0x1c, 0x00, 0x18, 0x00,
  0x17, 0x00, 0x10, 0x00, 0x0c, 0x00, 0x08, 0x00, 0x00, 0x00, 0x00, 0x00,
  0x00, 0x00, 0x07, 0x00, 0x16, 0x00, 0x00, 0x00, 0x00, 0x00, 0x00, 0x01,
  0x14, 0x00, 0x00, 0x00, 0x14, 0x00, 0x00, 0x00, 0x04, 0x00, 0x00, 0x00,
  0x00, 0x00, 0x00, 0x02, 0x1c, 0x00, 0x00, 0x00, 0x04, 0xff, 0xff, 0xff,
  0x0f, 0x00, 0x00, 0x00, 0x61, 0x72, 0x69, 0x74, 0x68, 0x2e, 0x63, 0x6f,
  0x6e, 0x73, 0x74, 0x61, 0x6e, 0x74, 0x32, 0x00, 0x01, 0x00, 0x00, 0x00,
  0x01, 0x00, 0x00, 0x00, 0xba, 0xff, 0xff, 0xff, 0x00, 0x00, 0x00, 0x01,
  0x10, 0x00, 0x00, 0x00, 0x10, 0x00, 0x00, 0x00, 0x03, 0x00, 0x00, 0x00,
  0x1c, 0x00, 0x00, 0x00, 0x3c, 0xff, 0xff, 0xff, 0x0f, 0x00, 0x00, 0x00,
  0x61, 0x72, 0x69, 0x74, 0x68, 0x2e, 0x63, 0x6f, 0x6e, 0x73, 0x74, 0x61,
  0x6e, 0x74, 0x31, 0x00, 0x04, 0x00, 0x00, 0x00, 0x08, 0x00, 0x00, 0x00,
  0x03, 0x00, 0x00, 0x00, 0x03, 0x00, 0x00, 0x00, 0x01, 0x00, 0x00, 0x00,
  0x00, 0x00, 0x16, 0x00, 0x18, 0x00, 0x14, 0x00, 0x00, 0x00, 0x10, 0x00,
  0x0c, 0x00, 0x08, 0x00, 0x00, 0x00, 0x00, 0x00, 0x00, 0x00, 0x07, 0x00,
  0x16, 0x00, 0x00, 0x00, 0x00, 0x00, 0x00, 0x01, 0x10, 0x00, 0x00, 0x00,
  0x10, 0x00, 0x00, 0x00, 0x02, 0x00, 0x00, 0x00, 0x1c, 0x00, 0x00, 0x00,
  0x98, 0xff, 0xff, 0xff, 0x0e, 0x00, 0x00, 0x00, 0x61, 0x72, 0x69, 0x74,
  0x68, 0x2e, 0x63, 0x6f, 0x6e, 0x73, 0x74, 0x61, 0x6e, 0x74, 0x00, 0x00,
  0x01, 0x00, 0x00, 0x00, 0x08, 0x00, 0x00, 0x00, 0x00, 0x00, 0x16, 0x00,
  0x1c, 0x00, 0x18, 0x00, 0x00, 0x00, 0x14, 0x00, 0x10, 0x00, 0x0c, 0x00,
  0x00, 0x00, 0x00, 0x00, 0x08, 0x00, 0x07, 0x00, 0x16, 0x00, 0x00, 0x00,
  0x00, 0x00, 0x00, 0x01, 0x14, 0x00, 0x00, 0x00, 0x28, 0x00, 0x00, 0x00,
  0x28, 0x00, 0x00, 0x00, 0x01, 0x00, 0x00, 0x00, 0x44, 0x00, 0x00, 0x00,
  0x04, 0x00, 0x00, 0x00, 0xff, 0xff, 0xff, 0xff, 0x18, 0x00, 0x00, 0x00,
  0x18, 0x00, 0x00, 0x00, 0x01, 0x00, 0x00, 0x00, 0x04, 0x00, 0x04, 0x00,
  0x04, 0x00, 0x00, 0x00, 0x1d, 0x00, 0x00, 0x00, 0x73, 0x65, 0x72, 0x76,
  0x69, 0x6e, 0x67, 0x5f, 0x64, 0x65, 0x66, 0x61, 0x75, 0x6c, 0x74, 0x5f,
  0x69, 0x6e, 0x70, 0x75, 0x74, 0x5f, 0x6c, 0x61, 0x79, 0x65, 0x72, 0x3a,
  0x30, 0x00, 0x00, 0x00, 0x04, 0x00, 0x00, 0x00, 0x01, 0x00, 0x00, 0x00,
  0x18, 0x00, 0x00, 0x00, 0x18, 0x00, 0x00, 0x00, 0x01, 0x00, 0x00, 0x00,
  0x08, 0x00, 0x00, 0x00, 0x90, 0x00, 0x00, 0x00, 0x74, 0x00, 0x00, 0x00,
  0x58, 0x00, 0x00, 0x00, 0x48, 0x00, 0x00, 0x00, 0x38, 0x00, 0x00, 0x00,
  0x28, 0x00, 0x00, 0x00, 0x14, 0x00, 0x00, 0x00, 0x04, 0x00, 0x00, 0x00,
  0xb4, 0xff, 0xff, 0xff, 0x0e, 0x00, 0x00, 0x00, 0x00, 0x00, 0x00, 0x0e,
  0xa8, 0xff, 0xff, 0xff, 0x09, 0x00, 0x00, 0x00, 0x0c, 0x00, 0x00, 0x00,
  0x00, 0x00, 0x00, 0x09, 0xd0, 0xff, 0xff, 0xff, 0x16, 0x00, 0x00, 0x00,
  0x00, 0x00, 0x00, 0x16, 0xdc, 0xff, 0xff, 0xff, 0x53, 0x00, 0x00, 0x00,
  0x00, 0x00, 0x00, 0x53, 0xe8, 0xff, 0xff, 0xff, 0x2d, 0x00, 0x00, 0x00,
  0x00, 0x00, 0x00, 0x2d, 0xf4, 0xff, 0xff, 0xff, 0x4d, 0x00, 0x00, 0x00,
  0x00, 0x00, 0x00, 0x4d, 0x0c, 0x00, 0x0c, 0x00, 0x0b, 0x00, 0x00, 0x00,
  0x00, 0x00, 0x04, 0x00, 0x0c, 0x00, 0x00, 0x00, 0x11, 0x00, 0x00, 0x00,
  0x00, 0x00, 0x00, 0x11, 0x0c, 0x00, 0x10, 0x00, 0x0f, 0x00, 0x00, 0x00,
  0x08, 0x00, 0x04, 0x00, 0x0c, 0x00, 0x00, 0x00, 0x03, 0x00, 0x00, 0x00,
  0x05, 0x00, 0x00, 0x00, 0x00, 0x00, 0x00, 0x03
};
unsigned int model_eye_model_tflite_len = 10184;
